{
  "version": "1.0",
  "truncation": null,
  "padding": null,
  "added_tokens": [
    {
      "id": 0,
      "content": "[PAD]",
      "single_word": false,
      "lstrip": false,
      "rstrip": false,
      "normalized": false,
      "special": true
    },
    {
      "id": 1,
      "content": "[CLS]",
      "single_word": false,
      "lstrip": false,
      "rstrip": false,
      "normalized": false,
      "special": true
    },
    {
      "id": 2,
      "content": "[SPE]",
      "single_word": false,
      "lstrip": false,
      "rstrip": false,
      "normalized": false,
      "special": true
    },
    {
      "id": 3,
      "content": "[MASK]",
      "single_word": false,
      "lstrip": false,
      "rstrip": false,
      "normalized": false,
      "special": true
    },
    {
      "id": 4,
      "content": "[UNK]",
      "single_word": false,
      "lstrip": false,
      "rstrip": false,
      "normalized": false,
      "special": true
    }
  ],
  "normalizer": null,
  "pre_tokenizer": null,
  "post_processor": null,
  "decoder": null,
  "model": {
    "type": "BPE",
    "dropout": null,
    "unk_token": null,
    "continuing_subword_prefix": null,
    "end_of_word_suffix": null,
    "fuse_unk": false,
    "vocab": {
      "[PAD]": 0,
      "[CLS]": 1,
      "[SPE]": 2,
      "[MASK]": 3,
      "[UNK]": 4,
      "!": 5,
      "\"": 6,
      "#": 7,
      "$": 8,
      "%": 9,
      "&": 10,
      "'": 11,
      "(": 12,
      ")": 13,
      "*": 14,
      "+": 15,
      ",": 16,
      "-": 17,
      ".": 18,
      "/": 19,
      ":": 20,
      ";": 21,
      "<": 22,
      "=": 23,
      ">": 24,
      "?": 25,
      "@": 26,
      "A": 27,
      "C": 28,
      "E": 29,
      "J": 30,
      "K": 31,
      "L": 32,
      "N": 33,
      "O": 34,
      "P": 35,
      "S": 36,
      "U": 37,
      "[": 38,
      "\\": 39,
      "]": 40,
      "^": 41,
      "_": 42,
      "`": 43,
      "a": 44,
      "b": 45,
      "c": 46,
      "d": 47,
      "e": 48,
      "f": 49,
      "g": 50,
      "h": 51,
      "i": 52,
      "j": 53,
      "k": 54,
      "l": 55,
      "m": 56,
      "n": 57,
      "o": 58,
      "p": 59,
      "r": 60,
      "s": 61,
      "t": 62,
      "u": 63,
      "v": 64,
      "w": 65,
      "z": 66,
      "{": 67,
      "|": 68,
      "}": 69,
      "~": 70,
      "æ": 71,
      "ð": 72,
      "ŋ": 73,
      "ɑ": 74,
      "ɔ": 75,
      "ɜ": 76,
      "ɪ": 77,
      "ʃ": 78,
      "ʊ": 79,
      "ʌ": 80,
      "ʒ": 81,
      "θ": 82,
      "冫": 83,
      "氵": 84,
      "ʌn": 85,
      "ðʌ": 86,
      "ɪn": 87,
      "st": 88,
      "ʌl": 89,
      "ʌnd": 90,
      "ɔr": 91,
      "ʌv": 92,
      "ɪŋ": 93,
      "en": 94,
      "tu": 95,
      "ti": 96,
      "ri": 97,
      "ʌm": 98,
      "ɪk": 99,
      "æn": 100,
      "ʌd": 101,
      "ɪz": 102,
      "ɑr": 103,
      "ʌt": 104,
      "Ju": 105,
      "ɪt": 106,
      "fɔr": 107,
      "An": 108,
      "æt": 109,
      "ʃʌn": 110,
      "ɑn": 111,
      "li": 112,
      "ʌs": 113,
      "er": 114,
      "wɪ": 115,
      "ʌnt": 116,
      "wɑ": 117,
      "se": 118,
      "tin": 119,
      "Et": 120,
      "wɑz": 121,
      "pr": 122,
      "ɪl": 123,
      "ði": 124,
      "tɜ": 125,
      "ʌk": 126,
      "ɪs": 127,
      "hæ": 128,
      "nAn": 129,
      "hi": 130,
      "el": 131,
      "ɔl": 132,
      "ek": 133,
      "ʌb": 134,
      "ʌp": 135,
      "ɪv": 136,
      "æk": 137,
      "æz": 138,
      "fr": 139,
      "ɪm": 140,
      "wen": 141,
      "wɜ": 142,
      "wɪð": 143,
      "ðæt": 144,
      "di": 145,
      "ɪf": 146,
      "an": 147,
      "tr": 148,
      "Eʃʌn": 149,
      "ɜz": 150,
      "En": 151,
      "At": 152,
      "em": 153,
      "ɪd": 154,
      "ʌz": 155,
      "nAntin": 156,
      "hɪz": 157,
      "bA": 158,
      "bi": 159,
      "si": 160,
      "vɜ": 161,
      "ʌst": 162,
      "es": 163,
      "ɪr": 164,
      "on": 165,
      "ent": 166,
      "wʌn": 167,
      "ɪst": 168,
      "sp": 169,
      "hɜ": 170,
      "gr": 171,
      "ol": 172,
      "sk": 173,
      "''": 174,
      "``": 175,
      "twen": 176,
      "ɑt": 177,
      "fɜ": 178,
      "ʃi": 179,
      "CL": 180,
      "E]": 181,
      "PE]": 182,
      "S]": 183,
      "SPE]": 184,
      "[CL": 185,
      "pɜ": 186,
      "eri": 187,
      "kl": 188,
      "bɜ": 189,
      "frʌm": 190,
      "pl": 191,
      "ɑl": 192,
      "ænd": 193,
      "Ad": 194,
      "ed": 195,
      "Em": 196,
      "br": 197,
      "ʊd": 198,
      "ðɜ": 199,
      "at": 200,
      "sɪk": 201,
      "kʌm": 202,
      "æm": 203,
      "ʌg": 204,
      "ʌns": 205,
      "sev": 206,
      "twenti": 207,
      "mi": 208,
      "mE": 209,
      "æl": 210,
      "ts": 211,
      "kr": 212,
      "so": 213,
      "lA": 214,
      "ʊr": 215,
      "mʌn": 216,
      "ɪʃ": 217,
      "ðer": 218,
      "sɜ": 219,
      "no": 220,
      "wi": 221,
      "hæd": 222,
      "ʌli": 223,
      "mA": 224,
      "ʌf": 225,
      "est": 226,
      "ɪp": 227,
      "az": 228,
      "bʌt": 229,
      "rʌd": 230,
      "ɑk": 231,
      "ɜd": 232,
      "ʌti": 233,
      "tʌd": 234,
      "ɪg": 235,
      "hʌnd": 236,
      "et": 237,
      "On": 238,
      "θaz": 239,
      "θazʌnd": 240,
      "hʌndrʌd": 241,
      ".``": 242,
      "Az": 243,
      "mʌnt": 244,
      "ʌj": 245,
      "Es": 246,
      "tA": 247,
      "ɔrd": 248,
      "ɑrt": 249,
      "and": 250,
      "ðɪs": 251,
      "end": 252,
      "str": 253,
      "ɑm": 254,
      "oz": 255,
      "pi": 256,
      "æf": 257,
      "wE": 258,
      "sevʌn": 259,
      "Av": 260,
      "ru": 261,
      "ɑp": 262,
      "θɜ": 263,
      "sʌm": 264,
      "ʌnz": 265,
      "hæv": 266,
      "nu": 267,
      "cɜ": 268,
      "pOn": 269,
      "nɑt": 270,
      "ld": 271,
      "iz": 272,
      "wɪc": 273,
      "Jun": 274,
      "ɪj": 275,
      "ʌðɜ": 276,
      "Juz": 277,
      ".''": 278,
      "old": 279,
      "ʌlz": 280,
      "kʌn": 281,
      "dr": 282,
      "lo": 283,
      "pOnt": 284,
      "hɪm": 285,
      "ʊk": 286,
      "du": 287,
      "fi": 288,
      "ɪʃʌn": 289,
      "ɜn": 290,
      "fɪf": 291,
      "wA": 292,
      "ha": 293,
      "θri": 294,
      "bl": 295,
      "ðE": 296,
      "ɔŋ": 297,
      "mo": 298,
      "ʌw": 299,
      "dɪs": 300,
      "æŋ": 301,
      "ev": 302,
      "Etin": 303,
      "sɪkst": 304,
      "ud": 305,
      "ɪts": 306,
      "ɔrt": 307,
      "kæ": 308,
      "in": 309,
      "entA": 310,
      "tAm": 311,
      "hu": 312,
      "ɑrk": 313,
      "æd": 314,
      "θɪŋ": 315,
      "wʊd": 316,
      "eni": 317,
      "pt": 318,
      "mɔr": 319,
      "ʌc": 320,
      "kɑn": 321,
      "evɜ": 322,
      "Etʌd": 323,
      "El": 324,
      "kɪŋ": 325,
      "fɔrm": 326,
      "kʌl": 327,
      "wel": 328,
      "sʌn": 329,
      "kæn": 330,
      "bɪ": 331,
      "sɪ": 332,
      "fl": 333,
      "ɔf": 334,
      "pʌl": 335,
      "bɪn": 336,
      "And": 337,
      "ɪntu": 338,
      "Ed": 339,
      "ovɜ": 340,
      "fɜst": 341,
      "ʌbʌl": 342,
      "tɪv": 343,
      "ɔlso": 344,
      "ks": 345,
      "Jʌl": 346,
      "æftɜ": 347,
      "vi": 348,
      "kʌnt": 349,
      "ni": 350,
      "hæz": 351,
      "ɑd": 352,
      "to": 353,
      "sen": 354,
      "),": 355,
      "re": 356,
      "ro": 357,
      "vd": 358,
      "bɪk": 359,
      "wer": 360,
      "æst": 361,
      "ɪks": 362,
      "wʌt": 363,
      "æs": 364,
      "ʌŋ": 365,
      "kʌmp": 366,
      "ʌvɜ": 367,
      "go": 368,
      "mæn": 369,
      "tʌn": 370,
      "kɑ": 371,
      "dɪd": 372,
      "bæk": 373,
      "ko": 374,
      "kɜ": 375,
      "fAv": 376,
      "ɪns": 377,
      "sel": 378,
      "ɪnd": 379,
      "Jɪr": 380,
      "bʌl": 381,
      "lAk": 382,
      "sed": 383,
      "sɪks": 384,
      "ʌndɜ": 385,
      "jɜ": 386,
      "prɑ": 387,
      "Ej": 388,
      "wɔr": 389,
      "lz": 390,
      "ækt": 391,
      "hA": 392,
      "ekt": 393,
      "ʌbat": 394,
      "||": 395,
      "ten": 396,
      "stEt": 397,
      "tE": 398,
      "dɜ": 399,
      "rE": 400,
      "le": 401,
      ").": 402,
      "ho": 403,
      "dE": 404,
      "riz": 405,
      "næ": 406,
      "bɪl": 407,
      "ɑrd": 408,
      "Eʃʌnz": 409,
      "ʒʌn": 410,
      "jʌst": 411,
      "most": 412,
      "lʌnd": 413,
      "kɔr": 414,
      "ðen": 415,
      "ðem": 416,
      "rɪ": 417,
      "nɔr": 418,
      "sʌl": 419,
      "nAnt": 420,
      "ʌnts": 421,
      "klud": 422,
      "wɪl": 423,
      "kʊd": 424,
      "hel": 425,
      "ɪŋg": 426,
      "mu": 427,
      "iv": 428,
      "ju": 429,
      "ɪkʌl": 430,
      "ʃʌnʌl": 431,
      "?''": 432,
      "plE": 433,
      "sek": 434,
      "ɪnklud": 435,
      "ʌgen": 436,
      "ɪntɜ": 437,
      "lEt": 438,
      "dɪf": 439,
      "bo": 440,
      "θru": 441,
      "rAt": 442,
      "onli": 443,
      "ez": 444,
      "kw": 445,
      "Jʌn": 446,
      "pɑrt": 447,
      "nEm": 448,
      "fɪl": 449,
      "ɪri": 450,
      "æns": 451,
      "Jɔr": 452,
      "ɜi": 453,
      ",''": 454,
      "dɪv": 455,
      "ki": 456,
      "bɪt": 457,
      "rit": 458,
      "kɑm": 459,
      "ɔri": 460,
      "hed": 461,
      "ʌbl": 462,
      "lʊk": 463,
      "embɜ": 464,
      "aɜ": 465,
      "mz": 466,
      "ʃʌl": 467,
      "wɑn": 468,
      "ʌts": 469,
      "sʌb": 470,
      "dz": 471,
      "ps": 472,
      "win": 473,
      "lɔ": 474,
      "tɪŋ": 475,
      "mæ": 476,
      "wɔ": 477,
      "wɜk": 478,
      "su": 479,
      "ɪksp": 480,
      "dan": 481,
      "Enj": 482,
      "pro": 483,
      "ʊrɪŋ": 484,
      "has": 485,
      "ʃɪp": 486,
      "lu": 487,
      "bɪg": 488,
      "kan": 489,
      "tiz": 490,
      "hænd": 491,
      "gɜ": 492,
      "pʌn": 493,
      "ðæn": 494,
      "kri": 495,
      "mɪn": 496,
      "ɔt": 497,
      "kʌns": 498,
      "tɜz": 499,
      "kɑr": 500,
      "eθ": 501,
      "ɜli": 502,
      "mɜ": 503,
      "erʌk": 504,
      "lE": 505,
      "dɪst": 506,
      "ʃʌnz": 507,
      "sA": 508,
      "dʊrɪŋ": 509,
      "sɜv": 510,
      "jʌn": 511,
      ".''``": 512,
      "ɪgz": 513,
      "mEd": 514,
      "fJu": 515,
      "tel": 516,
      "pʌbl": 517,
      "Jɪrz": 518,
      "bɪfɔr": 519,
      "sAd": 520,
      "ʌkʌl": 521,
      "bɑ": 522,
      "ul": 523,
      "sE": 524,
      "na": 525,
      "rɪk": 526,
      "lAn": 527,
      "wAl": 528,
      "kɔl": 529,
      "veri": 530,
      "ok": 531,
      "gʌn": 532,
      "Jʊr": 533,
      "Juzd": 534,
      "sʌk": 535,
      "self": 536,
      "wɜld": 537,
      "west": 538,
      "enɜ": 539,
      "sʌc": 540,
      "pɑr": 541,
      "mɑr": 542,
      "æsk": 543,
      "rɪt": 544,
      "bɪtwin": 545,
      "ʌtɪv": 546,
      "sʌs": 547,
      "fɑl": 548,
      "θi": 549,
      "næʃʌnʌl": 550,
      "pɑp": 551,
      "sm": 552,
      "ʌmerʌk": 553,
      "ɔz": 554,
      "lɪŋ": 555,
      "fand": 556,
      "sɪti": 557,
      "pʊ": 558,
      "mɪl": 559,
      "bE": 560,
      "get": 561,
      "ʌmz": 562,
      "ɪmp": 563,
      "ænt": 564,
      "sevʌntin": 565,
      "rʌ": 566,
      "fɔrti": 567,
      "tɜn": 568,
      "ɪnv": 569,
      "lɔŋ": 570,
      "sʌti": 571,
      "lɪt": 572,
      "rʌn": 573,
      "nʌs": 574,
      "sɪst": 575,
      "ji": 576,
      "Af": 577,
      "Jɜ": 578,
      "meni": 579,
      "rol": 580,
      "vʌl": 581,
      "ʌsi": 582,
      "dɪŋ": 583,
      "Etɪd": 584,
      "lEtɜ": 585,
      "ɜand": 586,
      "sʌp": 587,
      "tan": 588,
      "pri": 589,
      "lænd": 590,
      "enc": 591,
      "ses": 592,
      "fɪfti": 593,
      "æŋk": 594,
      "rɪz": 595,
      "lɑr": 596,
      "pipʌl": 597,
      "sekʌnd": 598,
      "Atʌd": 599,
      "evʌn": 600,
      "biɪŋ": 601,
      "pɑpJʌl": 602,
      "sevʌnt": 603,
      "ðiz": 604,
      "Eti": 605,
      "nʌm": 606,
      "Etɪŋ": 607,
      "ʌni": 608,
      "ðo": 609,
      "fA": 610,
      "mJuz": 611,
      "prez": 612,
      "set": 613,
      "gru": 614,
      "Azd": 615,
      ".\"": 616,
      "plEs": 617,
      "ɪʃt": 618,
      "hold": 619,
      "fʊ": 620,
      "mEn": 621,
      "twel": 622,
      "ɪnst": 623,
      "rɪv": 624,
      "sin": 625,
      "fɪftin": 626,
      "non": 627,
      "rɪm": 628,
      "jenɜ": 629,
      "fɔrtin": 630,
      "sɪkstin": 631,
      "sɪŋ": 632,
      "boθ": 633,
      "siz": 634,
      "ɔn": 635,
      "dɪz": 636,
      "fɑlo": 637,
      "per": 638,
      "hir": 639,
      "stɑr": 640,
      "gɪv": 641,
      "os": 642,
      "ct": 643,
      "Ez": 644,
      "prʌd": 645,
      "ekʃʌn": 646,
      "ektʌd": 647,
      "ʌld": 648,
      "ep": 649,
      "ivɪn": 650,
      "rek": 651,
      "Am": 652,
      "ft": 653,
      "ʌwɔrd": 654,
      "Junʌvɜ": 655,
      "sa": 656,
      "ɪkt": 657,
      "sept": 658,
      "stɪl": 659,
      "twelv": 660,
      "ʌdɪʃʌn": 661,
      "stænd": 662,
      "fɪft": 663,
      "fæm": 664,
      "gl": 665,
      "sl": 666,
      "mɑrk": 667,
      "ker": 668,
      "ɪro": 669,
      "Jʌ": 670,
      "æks": 671,
      "ɪnt": 672,
      "bɪkɔz": 673,
      "hɪst": 674,
      "po": 675,
      "stEts": 676,
      "ʌntli": 677,
      "mʌl": 678,
      "fæmʌli": 679,
      "ɪti": 680,
      "θɜti": 681,
      "skul": 682,
      "pɑ": 683,
      "tek": 684,
      "gEm": 685,
      "spi": 686,
      "Ev": 687,
      "ʌgenst": 688,
      "JunAtʌd": 689,
      "fʌl": 690,
      "sɪm": 691,
      "ʌntɪl": 692,
      "fAn": 693,
      "ɪlevʌn": 694,
      "ɑg": 695,
      "\".": 696,
      "ɑpɜ": 697,
      "kɑl": 698,
      "rʌl": 699,
      "dA": 700,
      "æp": 701,
      "fri": 702,
      "jɑn": 703,
      "As": 704,
      "End": 705,
      "lAf": 706,
      "sɪns": 707,
      "Ek": 708,
      "æmp": 709,
      "ʌmerʌkʌn": 710,
      "ʌθ": 711,
      "liv": 712,
      "sɪn": 713,
      "rɑ": 714,
      "hJu": 715,
      "ɔrn": 716,
      "ɪʒʌn": 717,
      "nɔrθ": 718,
      "ʌpɪr": 719,
      "list": 720,
      "mʌc": 721,
      "fɜd": 722,
      "mEk": 723,
      "\",": 724,
      "bɪkEm": 725,
      "ɑks": 726,
      "kɔld": 727,
      "muv": 728,
      "ej": 729,
      "ɪjʌn": 730,
      "æb": 731,
      "hom": 732,
      "ɪsk": 733,
      "ɪnkludɪŋ": 734,
      "ɑrm": 735,
      "ɪŋz": 736,
      "eriʌ": 737,
      "saθ": 738,
      "fel": 739,
      "strʌk": 740,
      "æŋg": 741,
      "Junʌvɜsʌti": 742,
      "θɜtin": 743,
      "æg": 744,
      "eðɜ": 745,
      "cEnj": 746,
      "zɪro": 747,
      "grEt": 748,
      "mɑd": 749,
      "wɜd": 750,
      "kʌ": 751,
      "ʌtɜ": 752,
      "dɑl": 753,
      "ef": 754,
      "ɪkst": 755,
      "ʌkɔrd": 756,
      "Ets": 757,
      "elʌp": 758,
      "kt": 759,
      "ʌwE": 760,
      "gʊd": 761,
      "nɜ": 762,
      "ænz": 763,
      "dɪ": 764,
      "fEs": 765,
      "men": 766,
      "haevɜ": 767,
      "ic": 768,
      "bʊk": 769,
      "strit": 770,
      "dɔr": 771,
      "sEm": 772,
      "nAt": 773,
      "pʌt": 774,
      "iʌn": 775,
      "ɔs": 776,
      "goɪŋ": 777,
      "trA": 778,
      "cu": 779,
      "dɪvelʌp": 780,
      "nɪr": 781,
      "ɑnt": 782,
      "red": 783,
      "fɪlm": 784,
      "eks": 785,
      "læst": 786,
      "nevɜ": 787,
      "lok": 788,
      "mem": 789,
      "nid": 790,
      "ʌnʌðɜ": 791,
      "ʃo": 792,
      "tʊk": 793,
      "tɪvAf": 794,
      "ozd": 795,
      "ist": 796,
      "dio": 797,
      "diʌn": 798,
      "cʌn": 799,
      "smɔl": 800,
      "ðoz": 801,
      "ʌwʌli": 802,
      "lAt": 803,
      "her": 804,
      "ci": 805,
      "pE": 806,
      "ɪntr": 807,
      "Enz": 808,
      "tɪd": 809,
      "nʌmbɜ": 810,
      "bɑdi": 811,
      "eg": 812,
      "bɔl": 813,
      "fɑ": 814,
      "fʊr": 815,
      "ʌtiz": 816,
      "rɪp": 817,
      "gri": 818,
      "ʌso": 819,
      "ɑlʌj": 820,
      "sw": 821,
      "lɑ": 822,
      "nɑ": 823,
      "nE": 824,
      "ɪfɪk": 825,
      "tAmz": 826,
      "sɪv": 827,
      "pɔr": 828,
      "ʌdi": 829,
      "mʌnts": 830,
      "sevʌnti": 831,
      "lɪv": 832,
      "sevrʌl": 833,
      "diʌ": 834,
      "θr": 835,
      "tEk": 836,
      "wɪn": 837,
      "sɪriz": 838,
      "nek": 839,
      "left": 840,
      "fɔrt": 841,
      "wɔtɜ": 842,
      "bʌn": 843,
      "lʌv": 844,
      "kʌntɪn": 845,
      "mʌ": 846,
      "min": 847,
      "eʃ": 848,
      "brɪt": 849,
      "ʌkEʃʌn": 850,
      "ælb": 851,
      "prʌv": 852,
      "cɑr": 853,
      "ʌlɔŋ": 854,
      "fɔrs": 855,
      "nʌ": 856,
      "sent": 857,
      "ɜɪjʌn": 858,
      "Ar": 859,
      "sɜvʌs": 860,
      "dʌn": 861,
      "bɜz": 862,
      "Al": 863,
      "endʌd": 864,
      "kEm": 865,
      "bæt": 866,
      "rim": 867,
      "eb": 868,
      "pɔrt": 869,
      "ʌtli": 870,
      "dɪp": 871,
      "dɑlɜz": 872,
      "Jus": 873,
      "kʌp": 874,
      "ril": 875,
      "gʌvɜ": 876,
      "rO": 877,
      "oni": 878,
      "græm": 879,
      "rum": 880,
      "gɑt": 881,
      "lɪtʌl": 882,
      ",\"": 883,
      "wɑnt": 884,
      "vɪl": 885,
      "pɑpJʌlEʃʌn": 886,
      "mʌk": 887,
      "dɪfɜ": 888,
      "ʌteri": 889,
      "bænd": 890,
      "æʃ": 891,
      "bɔrd": 892,
      "kɪl": 893,
      "lɑrj": 894,
      "krA": 895,
      "ɑb": 896,
      "ust": 897,
      "sʌz": 898,
      "led": 899,
      "pɑl": 900,
      "ænJu": 901,
      "pʌblɪk": 902,
      "let": 903,
      "fild": 904,
      "rɪtɜn": 905,
      "ter": 906,
      "ʌkr": 907,
      "meri": 908,
      "ɔfʌs": 909,
      "grup": 910,
      "rɪs": 911,
      "lig": 912,
      "θɪŋk": 913,
      "opʌn": 914,
      "ɪzʌm": 915,
      "wɔl": 916,
      "rɪl": 917,
      "pæ": 918,
      "tri": 919,
      "θɔt": 920,
      "tAt": 921,
      "bɪgæn": 922,
      "wEz": 923,
      "mɪd": 924,
      "sɪstʌm": 925,
      "vO": 926,
      "cɜz": 927,
      "?''``": 928,
      "wɪθ": 929,
      "sAt": 930,
      "wAt": 931,
      "kE": 932,
      "Jʌm": 933,
      "erd": 934,
      "pɑrk": 935,
      "ʌzɪʃʌn": 936,
      "jun": 937,
      "blæk": 938,
      "ræ": 939,
      "ʌŋk": 940,
      "ʌgr": 941,
      "kʌntɪnJu": 942,
      "rɪvɜ": 943,
      "lʊkt": 944,
      "wʊ": 945,
      "bJu": 946,
      "vA": 947,
      "pres": 948,
      "sencɜ": 949,
      "ðɜz": 950,
      "dɑk": 951,
      "les": 952,
      "paɜ": 953,
      "bɔrn": 954,
      "sɔŋ": 955,
      "pɜfɔrm": 956,
      "bɑr": 957,
      "sʌmθɪŋ": 958,
      "stʌn": 959,
      "sentɜ": 960,
      "evɜi": 961,
      "kæl": 962,
      "mJuzɪk": 963,
      "pʌnd": 964,
      "mɑn": 965,
      "tru": 966,
      "fɑloɪŋ": 967,
      "ɪkli": 968,
      "ʌsli": 969,
      "md": 970,
      "kanti": 971,
      "gʌvɜmʌnt": 972,
      "ʃʊr": 973,
      "nEmd": 974,
      "æskt": 975,
      "kʌmpʌni": 976,
      "vJu": 977,
      "cɜd": 978,
      "dʌm": 979,
      "nAntɪf": 980,
      "zd": 981,
      "Aɜ": 982,
      "mɪs": 983,
      "jɜmʌn": 984,
      "rod": 985,
      "frend": 986,
      "ot": 987,
      "wʌns": 988,
      "rA": 989,
      "entɜ": 990,
      "hɑr": 991,
      "went": 992,
      "dɪk": 993,
      "evʌl": 994,
      "jenɜʌl": 995,
      "wɪfɜ": 996,
      "kʌmJun": 997,
      "ʌkɔrdɪŋ": 998,
      "pɪŋ": 999,
      "tim": 1000,
      "vz": 1001,
      "fE": 1002,
      "Jɔrk": 1003,
      "sem": 1004,
      "bɪh": 1005,
      "pru": 1006,
      "ʌtu": 1007,
      "best": 1008,
      "held": 1009,
      "ɪlek": 1010,
      "bel": 1011,
      "dʌz": 1012,
      "kʌmpli": 1013,
      "hɑ": 1014,
      "bEs": 1015,
      "dɪt": 1016,
      "sʌ": 1017,
      "prʌvAd": 1018,
      "mɪst": 1019,
      "stɑp": 1020,
      "tʌg": 1021,
      "æft": 1022,
      "nɪŋ": 1023,
      "Enɪŋ": 1024,
      "fʌs": 1025,
      "cɪŋ": 1026,
      "spr": 1027,
      "bri": 1028,
      "Ebʌl": 1029,
      "fAnd": 1030,
      "bɪldɪŋ": 1031,
      "ɑnd": 1032,
      "emp": 1033,
      "kʌnsɪd": 1034,
      "ɔrgʌn": 1035,
      "ad": 1036,
      "sol": 1037,
      "ʃʊd": 1038,
      "θɜdi": 1039,
      "ʌmi": 1040,
      "cɜc": 1041,
      "tʌl": 1042,
      "rɪli": 1043,
      "ʌgn": 1044,
      "prezʌd": 1045,
      "sɪŋg": 1046,
      "deθ": 1047,
      "vɪn": 1048,
      "Ati": 1049,
      "sɔ": 1050,
      "fɪn": 1051,
      "met": 1052,
      "bæ": 1053,
      "twentɪvAf": 1054,
      "tɑp": 1055,
      "ektɪv": 1056,
      "rEs": 1057,
      "rɪzʌl": 1058,
      "progræm": 1059,
      "wAd": 1060,
      "ɔlðo": 1061,
      "kɑmʌn": 1062,
      "muvd": 1063,
      "wɪθat": 1064,
      "kwA": 1065,
      "not": 1066,
      "sencɜi": 1067,
      "uz": 1068,
      "sɪksti": 1069,
      "frʌnt": 1070,
      "rilist": 1071,
      "ɔfʌn": 1072,
      "ælbʌm": 1073,
      "ɪgzæm": 1074,
      "nekst": 1075,
      "cɪl": 1076,
      "pɑrti": 1077,
      "sand": 1078,
      "ɪθ": 1079,
      "pæst": 1080,
      "stɔr": 1081,
      "twention": 1082,
      "rest": 1083,
      "plæn": 1084,
      "rʌf": 1085,
      "brɪtɪʃ": 1086,
      "grand": 1087,
      "kEs": 1088,
      "tɔ": 1089,
      "ʌwʌl": 1090,
      "ʌbli": 1091,
      "fɑðɜ": 1092,
      "Alʌnd": 1093,
      "med": 1094,
      "ɪvent": 1095,
      "Jʌlɜ": 1096,
      "lel": 1097,
      "nov": 1098,
      "evri": 1099,
      "mer": 1100,
      "hɑrd": 1101,
      "entʌl": 1102,
      "prʌz": 1103,
      "ʃɔrt": 1104,
      "ɔrdɜ": 1105,
      "mɑrc": 1106,
      "ɔd": 1107,
      "bO": 1108,
      "wɪðɪn": 1109,
      "me": 1110,
      "bɪz": 1111,
      "jOn": 1112,
      "mʌt": 1113,
      "bɪkʌm": 1114,
      "drʌn": 1115,
      "ɜv": 1116,
      "kem": 1117,
      "ʌkʃʌn": 1118,
      "hashold": 1119,
      "kæst": 1120,
      "net": 1121,
      "ætɜ": 1122,
      "ʌmʌnt": 1123,
      "sizʌn": 1124,
      "tʌgeðɜ": 1125,
      "pʊt": 1126,
      "Etɜ": 1127,
      "fɜm": 1128,
      "redi": 1129,
      "rɑk": 1130,
      "æbl": 1131,
      "tio": 1132,
      "twent": 1133,
      "be": 1134,
      "ʃEn": 1135,
      "fɔrmɜ": 1136,
      "rɪsp": 1137,
      "Jʌŋ": 1138,
      "ʌtʌd": 1139,
      "septembɜ": 1140,
      "tʌwɔrd": 1141,
      "Jʊrʌp": 1142,
      "ekts": 1143,
      "lɪvɪŋ": 1144,
      "kæmp": 1145,
      "hɔr": 1146,
      "twɑ": 1147,
      "rEl": 1148,
      "stEʃʌn": 1149,
      "ɑrmi": 1150,
      "tɜnd": 1151,
      "sɑ": 1152,
      "rot": 1153,
      "test": 1154,
      "cɜʌl": 1155,
      "ʌðɜz": 1156,
      "ant": 1157,
      "fɑr": 1158,
      "tobɜ": 1159,
      "hɔl": 1160,
      "plEd": 1161,
      "fʌn": 1162,
      "sʌv": 1163,
      "smA": 1164,
      "mEl": 1165,
      "mɑ": 1166,
      "rekɜd": 1167,
      "wɑntʌd": 1168,
      "wo": 1169,
      "wɜdz": 1170,
      "us": 1171,
      "dɪfɜʌnt": 1172,
      "pEn": 1173,
      "fʊl": 1174,
      "mEjɜ": 1175,
      "ɑktobɜ": 1176,
      "Emz": 1177,
      "ɑgʌst": 1178,
      "bEst": 1179,
      "fʊt": 1180,
      "rez": 1181,
      "ɜt": 1182,
      "ʌsts": 1183,
      "klæs": 1184,
      "hɑrt": 1185,
      "swɪŋ": 1186,
      "lokʌl": 1187,
      "hɪstɜi": 1188,
      "kɑntr": 1189,
      "felt": 1190,
      "bɪlt": 1191,
      "fɔl": 1192,
      "æktɪv": 1193,
      "bɜg": 1194,
      "twentifʊr": 1195,
      "jænJu": 1196,
      "jænJueri": 1197,
      "tem": 1198,
      "mAn": 1199,
      "bɜt": 1200,
      "mɪlJʌn": 1201,
      "ɪli": 1202,
      "ʌfAd": 1203,
      "oldɜ": 1204,
      "mʌst": 1205,
      "mænʌj": 1206,
      "kʌnd": 1207,
      "gɑd": 1208,
      "θɜd": 1209,
      "kɔrt": 1210,
      "dɪsk": 1211,
      "Epr": 1212,
      "dEt": 1213,
      "ɑlʌji": 1214,
      "ɪktɜ": 1215,
      "Juzɪŋ": 1216,
      "julA": 1217,
      "pɪri": 1218,
      "prAm": 1219,
      "ɪstæbl": 1220,
      "enʃʌn": 1221,
      "mɪnʌst": 1222,
      "sɔr": 1223,
      "ækʃʌn": 1224,
      "zi": 1225,
      "rʌs": 1226,
      "lɪn": 1227,
      "membɜ": 1228,
      "Eprʌl": 1229,
      "tʊr": 1230,
      "ʌmʌŋ": 1231,
      "dɪm": 1232,
      "mʌs": 1233,
      "tɪk": 1234,
      "krɪs": 1235,
      "hɪmself": 1236,
      "sɪt": 1237,
      "kʌntrol": 1238,
      "hol": 1239,
      "hJumʌn": 1240,
      "mæg": 1241,
      "lɜ": 1242,
      "ɪntɜnæʃʌnʌl": 1243,
      "klʌb": 1244,
      "ber": 1245,
      "nɑn": 1246,
      "lɪʃ": 1247,
      "ɪnkri": 1248,
      "novembɜ": 1249,
      "stu": 1250,
      "lɪst": 1251,
      "sʌbʌl": 1252,
      "ʌbɪl": 1253,
      "dɪsem": 1254,
      "vOs": 1255,
      "dɪstrɪk": 1256,
      "kɑlɪj": 1257,
      "ɪps": 1258,
      "kʌt": 1259,
      "rid": 1260,
      "ept": 1261,
      "lɪm": 1262,
      "dɪsembɜ": 1263,
      "flu": 1264,
      "ʌfɪʃ": 1265,
      "æv": 1266,
      "ɪʃʌnz": 1267,
      "ætɪk": 1268,
      "sɪkstɪv": 1269,
      "bɪhAnd": 1270,
      "sɪl": 1271,
      "stɜ": 1272,
      "mAt": 1273,
      "prezʌdent": 1274,
      "nɪk": 1275,
      "ɪŋglɪʃ": 1276,
      "ʌlɜ": 1277,
      "ʌsosi": 1278,
      "ɪsʌp": 1279,
      "mElz": 1280,
      "sti": 1281,
      "væl": 1282,
      "lʌs": 1283,
      "træns": 1284,
      "ænʌ": 1285,
      "flɔr": 1286,
      "membɜz": 1287,
      "ʌʃ": 1288,
      "hændz": 1289,
      "stud": 1290,
      "lokEtʌd": 1291,
      "Od": 1292,
      "Juʒ": 1293,
      "sɪŋgʌl": 1294,
      "ævɜ": 1295,
      "pæn": 1296,
      "wɪd": 1297,
      "gɑrd": 1298,
      "ɔrj": 1299,
      "aɜz": 1300,
      "kæt": 1301,
      "ʌkrɔs": 1302,
      "cɪldrʌn": 1303,
      "stE": 1304,
      "sAz": 1305,
      "pʌzɪʃʌn": 1306,
      "stɑrtʌd": 1307,
      "help": 1308,
      "ɪgzæmpʌl": 1309,
      "hævɪŋ": 1310,
      "pæs": 1311,
      "stɑrt": 1312,
      "told": 1313,
      "sɪkstɪvswɪŋ": 1314,
      "ɑrg": 1315,
      "wik": 1316,
      "mʌnθ": 1317,
      "dEz": 1318,
      "mʌðɜ": 1319,
      "ɪmpɔrt": 1320,
      "rijʌn": 1321,
      "fræns": 1322,
      "læŋg": 1323,
      "Etɪv": 1324,
      "ɪnz": 1325,
      "Jʌw": 1326,
      "ɪgn": 1327,
      "fer": 1328,
      "klos": 1329,
      "sʌkses": 1330,
      "iʌ": 1331,
      "tʌm": 1332,
      "frenc": 1333,
      "sʌpɔrt": 1334,
      "dɔ": 1335,
      "trænz": 1336,
      "Aʌti": 1337,
      "tɑm": 1338,
      "læŋgw": 1339,
      "wito": 1340,
      "tli": 1341,
      "slo": 1342,
      "prʌt": 1343,
      "bed": 1344,
      "gro": 1345,
      "ɪnʌf": 1346,
      "læŋgwʌj": 1347,
      "nuz": 1348,
      "twentwito": 1349,
      "vɪz": 1350,
      "ɪlektr": 1351,
      "pɜsʌn": 1352,
      "fɪr": 1353,
      "hɪl": 1354,
      "ens": 1355,
      "onz": 1356,
      "gɪvʌn": 1357,
      "trʌl": 1358,
      "ɔstr": 1359,
      "vo": 1360,
      "plEst": 1361,
      "dɑrk": 1362,
      "jɜz": 1363,
      "pɪk": 1364,
      "ʃu": 1365,
      "bɜn": 1366,
      "ɪsts": 1367,
      "dEv": 1368,
      "ɪskiz": 1369,
      "endɪŋ": 1370,
      "dAd": 1371,
      "ɜɪjʌnʌl": 1372,
      "spEs": 1373,
      "hæf": 1374,
      "krɪt": 1375,
      "dɪl": 1376,
      "ædv": 1377,
      "ɪki": 1378,
      "opʌnd": 1379,
      "mEkɪŋ": 1380,
      "ded": 1381,
      "ʌsp": 1382,
      "pʌblɪʃt": 1383,
      "sɜc": 1384,
      "eʃʌn": 1385,
      "ʌnsʌz": 1386,
      "jæk": 1387,
      "kʌnstrʌk": 1388,
      "lʌndʌn": 1389,
      "feb": 1390,
      "sæn": 1391,
      "reprʌz": 1392,
      "dæm": 1393,
      "gEv": 1394,
      "fAɜ": 1395,
      "Jʌweri": 1396,
      "febJʌweri": 1397,
      "sæt": 1398,
      "ektɜ": 1399,
      "wɪmʌn": 1400,
      "cAn": 1401,
      "fed": 1402,
      "ŋk": 1403,
      "kæp": 1404,
      "prʌf": 1405,
      "vɜʒʌn": 1406,
      "bɪznʌs": 1407,
      "spe": 1408,
      "gʌl": 1409,
      "entʌd": 1410,
      "rʌg": 1411,
      "æfr": 1412,
      "supɜ": 1413,
      "krAb": 1414,
      "dɪsp": 1415,
      "ɪc": 1416,
      "ævɜɪj": 1417,
      "ɔlmost": 1418,
      "roz": 1419,
      "ɑj": 1420,
      "ɔlwEz": 1421,
      "kæm": 1422,
      "jɔrj": 1423,
      "ʌnan": 1424,
      "ma": 1425,
      "ɪnkludʌd": 1426,
      "lAv": 1427,
      "rʌb": 1428,
      "rʌsi": 1429,
      "ski": 1430,
      "speʃʌl": 1431,
      "wʊmʌn": 1432,
      "cer": 1433,
      "nAntAn": 1434,
      "dɪstrɪkt": 1435,
      "nAntAnti": 1436,
      "pɪriʌd": 1437,
      "dɪskrAb": 1438,
      "westɜn": 1439,
      "entʌf": 1440,
      "kʌmænd": 1441,
      "prezʌnt": 1442,
      "Azɪŋ": 1443,
      "blu": 1444,
      "den": 1445,
      "grænd": 1446,
      "ɔst": 1447,
      "ʒʌnz": 1448,
      "gold": 1449,
      "ɜɪŋ": 1450,
      "ben": 1451,
      "ɔstrEl": 1452,
      "kansʌl": 1453,
      "vɪ": 1454,
      "stɔri": 1455,
      "brɪj": 1456,
      "strA": 1457,
      "enjʌn": 1458,
      "kʌntɪnJud": 1459,
      "cʌz": 1460,
      ",``": 1461,
      "stʌdi": 1462,
      "grin": 1463,
      "dɪzAn": 1464,
      "vɪlʌj": 1465,
      "liz": 1466,
      "pʌs": 1467,
      "fil": 1468,
      "mAnd": 1469,
      "prɪns": 1470,
      "post": 1471,
      "dem": 1472,
      "kɔrpɜ": 1473,
      "θɪŋz": 1474,
      "eksp": 1475,
      "fAnʌl": 1476,
      "ɪnsAd": 1477,
      "vɑl": 1478,
      "twentiθri": 1479,
      "nʌθɪŋ": 1480,
      "æfrʌk": 1481,
      "kʌnv": 1482,
      "bætʌl": 1483,
      "ʌpɪrd": 1484,
      "ku": 1485,
      "lɔst": 1486,
      "kɑz": 1487,
      "klɪr": 1488,
      "cæm": 1489,
      "mæs": 1490,
      "bɑt": 1491,
      "nAnti": 1492,
      "wɜks": 1493,
      "kʌntri": 1494,
      "uʃʌn": 1495,
      "skAz": 1496,
      "bʊ": 1497,
      "mɪt": 1498,
      "betɜ": 1499,
      "swi": 1500,
      "pʌlɪt": 1501,
      "Ald": 1502,
      "ɪŋk": 1503,
      "kɑnst": 1504,
      "Atɜ": 1505,
      "trʌdɪʃʌn": 1506,
      "wɪnd": 1507,
      "eniθɪŋ": 1508,
      "rʌsivd": 1509,
      "ɔrts": 1510,
      "dek": 1511,
      "Elz": 1512,
      "ʌdʌ": 1513,
      "jekt": 1514,
      "K]": 1515,
      "NK]": 1516,
      "UNK]": 1517,
      "ɪntrʌd": 1518,
      "del": 1519,
      "ɜnʌl": 1520,
      "sɜvd": 1521,
      "trEd": 1522,
      "gEmz": 1523,
      "nAntAt": 1524,
      "ræn": 1525,
      "erz": 1526,
      "kJu": 1527,
      "twentiskAz": 1528,
      "brɔd": 1529,
      "cæmpi": 1530,
      "strɔŋ": 1531,
      "ʌstri": 1532,
      "fɔrmd": 1533,
      "jin": 1534,
      "sentrʌl": 1535,
      "fɔrtɪv": 1536,
      "twentisevʌn": 1537,
      "soʃʌl": 1538,
      "fɜðɜ": 1539,
      "telʌv": 1540,
      "kol": 1541,
      "dɪvelʌpmʌnt": 1542,
      "fɪg": 1543,
      "fAt": 1544,
      "fedɜ": 1545,
      "klo": 1546,
      "mɪlʌteri": 1547,
      "æstɜ": 1548,
      "dʌbʌl": 1549,
      "do": 1550,
      "erʌ": 1551,
      "lin": 1552,
      "sæm": 1553,
      "tʌs": 1554,
      "ʌks": 1555,
      "kip": 1556,
      "ʃt": 1557,
      "wEt": 1558,
      "ɪnvɑl": 1559,
      "prækt": 1560,
      "dɪn": 1561,
      "iðɜ": 1562,
      "hɪt": 1563,
      "fæk": 1564,
      "fɔrtɪvwɪd": 1565,
      "sʌmwʌn": 1566,
      "mɑdɜn": 1567,
      "hɪstɔr": 1568,
      "træ": 1569,
      "ɔlredi": 1570,
      "ʃɪŋ": 1571,
      "bu": 1572,
      "merid": 1573,
      "ɪnkʌm": 1574,
      "drAv": 1575,
      "reg": 1576,
      "ʌvɜd": 1577,
      "twentin": 1578,
      "ɪkspl": 1579,
      "ʒɜ": 1580,
      "hen": 1581,
      "blʌd": 1582,
      "ænʌm": 1583,
      "ʌlAn": 1584,
      "kʌnsɪdɜd": 1585,
      "nAntɪv": 1586,
      "ʌpr": 1587,
      "tɜm": 1588,
      "ɪnsted": 1589,
      "totʌl": 1590,
      "fɜmEʃʌn": 1591,
      "pʌlɪtʌkʌl": 1592,
      "kɔrs": 1593,
      "prʌp": 1594,
      "twentinA": 1595,
      "wɪlJʌm": 1596,
      "veriʌs": 1597,
      "tEkʌn": 1598,
      "nAntɪvsɪn": 1599,
      "ɔrʌti": 1600,
      "ælʌs": 1601,
      "pen": 1602,
      "gæ": 1603,
      "nAntɪfAtɜ": 1604,
      "telʌvɪʒʌn": 1605,
      "jd": 1606,
      "ɪmpɔrtʌnt": 1607,
      ".'": 1608,
      "rOʌl": 1609,
      "Eʒʌn": 1610,
      "rEnj": 1611,
      "kwes": 1612,
      "sɪz": 1613,
      "privi": 1614,
      "græ": 1615,
      "prɪz": 1616,
      "ɑrmz": 1617,
      "sun": 1618,
      "fok": 1619,
      "\"(": 1620,
      "ɪkis": 1621,
      "kɑt": 1622,
      "nAntɪkis": 1623,
      "Juʒʌwʌli": 1624,
      "hæm": 1625,
      "ælʌti": 1626,
      "pæt": 1627,
      "ʃɪps": 1628,
      "væn": 1629,
      "ʌzEʃʌn": 1630,
      "stʊd": 1631,
      "bɪgɪn": 1632,
      "jo": 1633,
      "jE": 1634,
      "ɪstæblɪʃt": 1635,
      "hɜd": 1636,
      "prʌdʌkʃʌn": 1637,
      "!''": 1638,
      "lʊkɪŋ": 1639,
      "lɪ": 1640,
      "hev": 1641,
      "beri": 1642,
      "ʌfi": 1643,
      "ston": 1644,
      "kʌmJunʌti": 1645,
      "jEmz": 1646,
      "fɪŋg": 1647,
      "dɑ": 1648,
      "rikwA": 1649,
      "ʃE": 1650,
      "dʌd": 1651,
      "ɪnɪʃ": 1652,
      "sli": 1653,
      "rel": 1654,
      "Avd": 1655,
      "ʌnanst": 1656,
      "bʌs": 1657,
      "momʌnt": 1658,
      "pis": 1659,
      "ʌpɑn": 1660,
      "kwɑ": 1661,
      "rut": 1662,
      "klEm": 1663,
      "ekʌn": 1664,
      "ment": 1665,
      "rEdio": 1666,
      "ʌnsi": 1667,
      "ʃʌ": 1668,
      "kriEtʌd": 1669,
      "skɑt": 1670,
      "bɪli": 1671,
      "ʌfɔr": 1672,
      "tekn": 1673,
      "træn": 1674,
      "rict": 1675,
      "pɑpJʌlɜ": 1676,
      "fʌŋk": 1677,
      "ɑrtmʌnt": 1678,
      "lɪk": 1679,
      "ʌvɪj": 1680,
      "Jes": 1681,
      "ejʌkEʃʌn": 1682,
      "rɪtɜnd": 1683,
      "prɑpɜ": 1684,
      "ɑs": 1685,
      "ʌkt": 1686,
      "sɪkstwɪfɜ": 1687,
      "ɪndɪp": 1688,
      "ɪndʌvɪj": 1689,
      "ka": 1690,
      "sep": 1691,
      "sʌnt": 1692,
      "wɜkɪŋ": 1693,
      "grE": 1694,
      "ɪŋglʌnd": 1695,
      "atsAd": 1696,
      "dip": 1697,
      "kAnd": 1698,
      "ʌmʌnts": 1699,
      "cest": 1700,
      "ɪndɪpend": 1701,
      "ʌpOn": 1702,
      "drɑp": 1703,
      "pʌli": 1704,
      "ɪntA": 1705,
      "hAd": 1706,
      "rɪtʌn": 1707,
      "vin": 1708,
      "hE": 1709,
      "θɜtiʌn": 1710,
      "dɜekt": 1711,
      "lʌ": 1712,
      "lɔn": 1713,
      "æli": 1714,
      "gʌv": 1715,
      "gɜl": 1716,
      "træk": 1717,
      "prɑb": 1718,
      "ælʌn": 1719,
      "mæk": 1720,
      "cæmpiʌn": 1721,
      "JunJʌn": 1722,
      "cAld": 1723,
      "æŋks": 1724,
      "mɪŋ": 1725,
      "pol": 1726,
      "stændɪŋ": 1727,
      "wAf": 1728,
      "ɪnflu": 1729,
      "fɑlod": 1730,
      "sɪmʌlɜ": 1731,
      "niɪntu": 1732,
      "ʌpʌl": 1733,
      "dɪsAd": 1734,
      "stændɜd": 1735,
      "ɔrdʌn": 1736,
      "prʌdust": 1737,
      "tEkɪŋ": 1738,
      "niɪntutio": 1739,
      "fɔrtJu": 1740,
      "nAntwɪfɜ": 1741,
      "ɪntrʌst": 1742,
      "sensʌs": 1743,
      "lʌn": 1744,
      "tɪp": 1745,
      "un": 1746,
      "ets": 1747,
      "risɜc": 1748,
      "mɪʃʌn": 1749,
      "sts": 1750,
      "studʌnts": 1751,
      "prɑbl": 1752,
      "efɜ": 1753,
      "mEbi": 1754,
      "mɪdʌl": 1755,
      "sʌðɜ": 1756,
      "prAz": 1757,
      "klozd": 1758,
      "prɑses": 1759,
      "ʌpro": 1760,
      "mel": 1761,
      "skwer": 1762,
      "ʌbz": 1763,
      "eli": 1764,
      "ækc": 1765,
      "gʌvɜn": 1766,
      "nɔrðɜ": 1767,
      "fɔrtJufɜ": 1768,
      "nAntɪfri": 1769,
      "epʌso": 1770,
      "kʌvɜ": 1771,
      "stʌd": 1772,
      "ænʌl": 1773,
      "fʌnd": 1774,
      "rEʃʌn": 1775,
      "sɪri": 1776,
      "tʌ": 1777,
      "Ec": 1778,
      "kræft": 1779,
      "tAtʌl": 1780,
      "lɑk": 1781,
      "ɪndʌstri": 1782,
      "sku": 1783,
      "lAnz": 1784,
      "ʌbʌv": 1785,
      "nɔrðɜn": 1786,
      "tEn": 1787,
      "fli": 1788,
      "fAnʌli": 1789,
      "kʌst": 1790,
      "mað": 1791,
      "ɑnɪk": 1792,
      "fɪʃ": 1793,
      "brʌðɜ": 1794,
      "ændʌd": 1795,
      "pA": 1796,
      "jʌm": 1797,
      "prʌ": 1798,
      "ræðɜ": 1799,
      "jɪk": 1800,
      "stEj": 1801,
      "trAd": 1802,
      "reprʌzent": 1803,
      "dɑn": 1804,
      "lidɜ": 1805,
      "pæk": 1806,
      "rezɪd": 1807,
      "ʌvEl": 1808,
      "ɪriʌl": 1809,
      "ɪnvest": 1810,
      "sʌmɜ": 1811,
      "kʌmɪŋ": 1812,
      "ɜθ": 1813,
      "lEk": 1814,
      "dɑktɜ": 1815,
      "sɜtʌn": 1816,
      "sʌg": 1817,
      "Jet": 1818,
      "ʌtɔri": 1819,
      "trAɪŋ": 1820,
      "pEpɜ": 1821,
      "ɪmi": 1822,
      "prʌm": 1823,
      "bʌ": 1824,
      "ʌlon": 1825,
      "kwɔr": 1826,
      "bæd": 1827,
      "sʌmtAmz": 1828,
      "ʃiz": 1829,
      "els": 1830,
      "iʌm": 1831,
      "**": 1832,
      "ar": 1833,
      "prAv": 1834,
      "leg": 1835,
      "nɑd": 1836,
      "ʊri": 1837,
      "eriʌz": 1838,
      "sʌðɜn": 1839,
      "sʌventʌf": 1840,
      "pɔl": 1841,
      "wɜkt": 1842,
      "sepɜ": 1843,
      "sʌventʌfAt": 1844,
      "sens": 1845,
      "plEɜ": 1846,
      "jest": 1847,
      "evriθɪŋ": 1848,
      "lej": 1849,
      "ɪnfɜmEʃʌn": 1850,
      "iɜ": 1851,
      "lɔrd": 1852,
      "rɪŋ": 1853,
      "mʌnd": 1854,
      "nAnʃEn": 1855,
      "dæn": 1856,
      "egz": 1857,
      "fit": 1858,
      "rɪj": 1859,
      "spɑn": 1860,
      "kɑŋ": 1861,
      "fɔrθ": 1862,
      "dEvɪd": 1863,
      "dɪvɪʒʌn": 1864,
      "Ol": 1865,
      "enj": 1866,
      "midiʌn": 1867,
      "rEn": 1868,
      "lAz": 1869,
      "mʌni": 1870,
      "bɪliv": 1871,
      "sʌnz": 1872,
      "prest": 1873,
      "jʌl": 1874,
      "ʌpi": 1875,
      "empl": 1876,
      "ænc": 1877,
      "bz": 1878,
      "ɑmɪk": 1879,
      "tɔr": 1880,
      "fɪz": 1881,
      "fɔrsɪz": 1882,
      "lɑt": 1883,
      "od": 1884,
      "EtinAn": 1885,
      ".(": 1886,
      "ɪnf": 1887,
      "ɪsʌn": 1888,
      "ʌfɪʃʌl": 1889,
      "lɪtɜ": 1890,
      "tʌdE": 1891,
      "sɪkJʊr": 1892,
      "ʃɑt": 1893,
      "ʌtæk": 1894,
      "tʌc": 1895,
      "stAl": 1896,
      "kerɪktɜ": 1897,
      "ɑz": 1898,
      "rekʌgn": 1899,
      "fud": 1900,
      "Just": 1901,
      "lɜn": 1902,
      "rAts": 1903,
      "kost": 1904,
      "jʌp": 1905,
      "sʌsAʌti": 1906,
      "Atit": 1907,
      "rej": 1908,
      "vʌst": 1909,
      "sɑl": 1910,
      "pʌlis": 1911,
      "kɑrd": 1912,
      "dɪvelʌpt": 1913,
      "kɜɪr": 1914,
      "rand": 1915,
      "fækt": 1916,
      "Jʊrʌpiʌn": 1917,
      "mʌnθs": 1918,
      "nidʌd": 1919,
      "rili": 1920,
      "bʌnd": 1921,
      "levʌl": 1922,
      "brɔt": 1923,
      "duɪŋ": 1924,
      "meθ": 1925,
      "stin": 1926,
      "rɪzʌlt": 1927,
      "ɪkspɪri": 1928,
      "ɑns": 1929,
      "EtAv": 1930,
      "EtAvɪf": 1931,
      "rEt": 1932,
      "weðɜ": 1933,
      "mJun": 1934,
      "Edz": 1935,
      "jɪn": 1936,
      "res": 1937,
      "trævʌl": 1938,
      "sez": 1939,
      "ɪlekʃʌn": 1940,
      "kɑnt": 1941,
      "Jut": 1942,
      "hasholdz": 1943,
      "mɪr": 1944,
      "fɜʌns": 1945,
      "æts": 1946,
      "dɪspAt": 1947,
      "lʌm": 1948,
      "fʌli": 1949,
      "ʌvElʌbʌl": 1950,
      "fæmʌliz": 1951,
      "ɑjɪkʌl": 1952,
      "fEm": 1953,
      "kɪld": 1954,
      "jæ": 1955,
      "ʌla": 1956,
      "sʌd": 1957,
      "spiʃiz": 1958,
      "eksʌk": 1959,
      "ʌniz": 1960,
      "prɑbʌbli": 1961,
      "efJu": 1962,
      "ʌgo": 1963,
      "pɑsʌbʌl": 1964,
      "sɜvʌsʌz": 1965,
      "dɪfi": 1966,
      "mɪnʌstɜ": 1967,
      "tEbʌl": 1968,
      "ʌmerʌkʌ": 1969,
      "dɪg": 1970,
      "fo": 1971,
      "bʌlz": 1972,
      "pʊld": 1973,
      "hɑl": 1974,
      "Adiʌ": 1975,
      "bʊks": 1976,
      "ksɪs": 1977,
      "gɑr": 1978,
      "bɪlo": 1979,
      "ænsɜ": 1980,
      "rin": 1981,
      "simd": 1982,
      "sAn": 1983,
      "sɪvʌl": 1984,
      "hʊd": 1985,
      "ɪvenc": 1986,
      "ɑv": 1987,
      "ŋkθ": 1988,
      "kɑmpl": 1989,
      "kwin": 1990,
      "Atiksɪs": 1991,
      "prɑjekt": 1992,
      "kænʌdʌ": 1993,
      "Etɪg": 1994,
      "trænsp": 1995,
      "empɜ": 1996,
      "ɪvencʌwʌli": 1997,
      "Etɪgstʌn": 1998,
      "θɜtɪvAf": 1999,
      "ʌnst": 2000,
      "ʃer": 2001,
      "stre": 2002,
      "ʌgz": 2003,
      "ensɪv": 2004,
      "mɑrkʌt": 2005,
      "tAp": 2006,
      "lidɪŋ": 2007,
      ":\"": 2008,
      "cEnjd": 2009,
      "fimEl": 2010,
      "kʌmpJu": 2011,
      "ɑgr": 2012,
      "mes": 2013,
      "rɪmembɜ": 2014,
      "ændɜ": 2015,
      "eʃli": 2016,
      "ɪrz": 2017,
      "ʌtʌl": 2018,
      "ɜɪjʌnʌli": 2019,
      "fʊtbɔl": 2020,
      "ʌtr": 2021,
      "endz": 2022,
      "ʌkEʃʌnz": 2023,
      "okE": 2024,
      "brEk": 2025,
      "bol": 2026,
      "Ent": 2027,
      "ɪtʌl": 2028,
      "lɑrjʌst": 2029,
      "romʌn": 2030,
      "kʌnstrʌkʃʌn": 2031,
      "dɪskrAbd": 2032,
      "fandʌd": 2033,
      "lAbr": 2034,
      "næcɜʌl": 2035,
      "ʌtɜz": 2036,
      "kli": 2037,
      "endɜ": 2038,
      "tun": 2039,
      "sn": 2040,
      "mɑdʌl": 2041,
      "man": 2042,
      "bæl": 2043,
      "θruat": 2044,
      "rizʌn": 2045,
      "Etifʊr": 2046,
      "preʃʌn": 2047,
      "ʌspeʃli": 2048,
      "grups": 2049,
      "kɪd": 2050,
      "jen": 2051,
      "klæ": 2052,
      "ædʌd": 2053,
      "ɪmʌn": 2054,
      "sEf": 2055,
      "pand": 2056,
      "Etrit": 2057,
      "rilEʃʌn": 2058,
      "Etriter": 2059,
      "pruv": 2060,
      "ɔg": 2061,
      "bɪs": 2062,
      "-||": 2063,
      "gɪl": 2064,
      "skulz": 2065,
      "kæri": 2066,
      "sʌgjest": 2067,
      "gɔn": 2068,
      "spæn": 2069,
      "lAɪŋ": 2070,
      "ɪmɜ": 2071,
      "jOnd": 2072,
      "ɪkwɪ": 2073,
      "bæŋk": 2074,
      "sAʌns": 2075,
      "krɪst": 2076,
      "kɜʌnt": 2077,
      "dil": 2078,
      "sɪkts": 2079,
      "kʌntriz": 2080,
      "fɪt": 2081,
      "rɪmEnd": 2082,
      "sɪgn": 2083,
      "gol": 2084,
      "||-||": 2085,
      "Etitwɑ": 2086,
      "fon": 2087,
      "ɑri": 2088,
      "dɜektɜ": 2089,
      "Etitwɑto": 2090,
      "hAɜ": 2091,
      "lAbreri": 2092,
      "mɪstɜ": 2093,
      "meθʌd": 2094,
      "prɑm": 2095,
      "filɪŋ": 2096,
      "erkræft": 2097,
      "kwɪkli": 2098,
      "Etiʌn": 2099,
      "ɪpt": 2100,
      "wɪt": 2101,
      "dɪdʌnt": 2102,
      "nJʌ": 2103,
      "ðʌs": 2104,
      "kro": 2105,
      "sʌkw": 2106,
      "æksept": 2107,
      "prɑd": 2108,
      "ʌkEtʌd": 2109,
      "spred": 2110,
      "ʒʌ": 2111,
      "ɪb": 2112,
      "frendz": 2113,
      "prAvʌt": 2114,
      "spɪr": 2115,
      "rʌnɪŋ": 2116,
      "kæpt": 2117,
      "ɪkJʌl": 2118,
      "pɑrts": 2119,
      "lɪf": 2120,
      "bran": 2121,
      "Jur": 2122,
      "mɔrnɪŋ": 2123,
      "loɜ": 2124,
      "henri": 2125,
      "vɪdio": 2126,
      "rʌkɔrd": 2127,
      "rʌkɔrdʌd": 2128,
      "hɑt": 2129,
      "fest": 2130,
      "lɔŋgɜ": 2131,
      "cɑrlz": 2132,
      "vAʌl": 2133,
      "klAm": 2134,
      "rekɜdz": 2135,
      "sɪkstɪn": 2136,
      "ʌdʌns": 2137,
      "bJut": 2138,
      "kælʌfɔr": 2139,
      "rɑbɜt": 2140,
      "rilis": 2141,
      "sold": 2142,
      "sevʌntefJu": 2143,
      "stiv": 2144,
      "mɜd": 2145,
      "plEɪŋ": 2146,
      "bɑm": 2147,
      "dɔtɜ": 2148,
      "rAd": 2149,
      "θɜtito": 2150,
      "smAl": 2151,
      "kælʌfɔrnJʌ": 2152,
      "tɔk": 2153,
      "hʌnt": 2154,
      "fɔrwɜd": 2155,
      "dɪpɑrtmʌnt": 2156,
      "erɪk": 2157,
      "mAself": 2158,
      "ʌgri": 2159,
      "dɪsAdɪd": 2160,
      "ut": 2161,
      "sevʌntivʌst": 2162,
      "sevʌntAn": 2163,
      "mant": 2164,
      "ɪmpl": 2165,
      "ɪndi": 2166,
      "fiʌn": 2167,
      "fɔrtu": 2168,
      "kwɑl": 2169,
      "θɜtri": 2170,
      "sɪktsAt": 2171,
      "hæn": 2172,
      "fɔrmz": 2173,
      "band": 2174,
      "ɑpɜEʃʌn": 2175,
      "sit": 2176,
      "vɜs": 2177,
      "breθ": 2178,
      "vɪkt": 2179,
      "sɪkstɪs": 2180,
      "θɜtʌn": 2181,
      "ʌbɪlʌti": 2182,
      "jɑb": 2183,
      "strEt": 2184,
      "istɜn": 2185,
      "fɔrtit": 2186,
      "pɑlʌt": 2187,
      "mit": 2188,
      "gæl": 2189,
      "mɪnʌts": 2190,
      "θʌm": 2191,
      "sevʌntit": 2192,
      "sɪkstɪsvɪn": 2193,
      "huz": 2194,
      "krɔs": 2195,
      "dAn": 2196,
      "minz": 2197,
      "sekʃʌn": 2198,
      "ɪvents": 2199,
      "θiʌtɜ": 2200,
      "lɪbɜ": 2201,
      "skɔr": 2202,
      "fimElz": 2203,
      "cif": 2204,
      "sAl": 2205,
      "brɪŋ": 2206,
      "hɜself": 2207,
      "ond": 2208,
      "sevʌntʊr": 2209,
      "hʌz": 2210,
      "dres": 2211,
      "sevʌnstin": 2212,
      "tɑmʌs": 2213,
      "sevʌntA": 2214,
      "kɪŋdʌm": 2215,
      "JEn": 2216,
      "prɑv": 2217,
      "muvmʌnt": 2218,
      "sɪmp": 2219,
      "skɪn": 2220,
      "rɪcɜd": 2221,
      "lɪps": 2222,
      "gɑ": 2223,
      "sevʌnstins": 2224,
      "nEtɪv": 2225,
      "getɪŋ": 2226,
      "fɔrtutwɑ": 2227,
      "mʌz": 2228,
      "θɜtʌs": 2229,
      "θɜtisɪks": 2230,
      "sevʌntʊrfiʌn": 2231,
      "sevʌntJEn": 2232,
      "dɪstrO": 2233,
      "Junʌts": 2234,
      "Oz": 2235,
      "ʌnsɪz": 2236,
      "θɜtrieθ": 2237,
      "sevʌntAθr": 2238,
      "des": 2239,
      "cæp": 2240,
      "dEn": 2241,
      "ræp": 2242,
      "Adent": 2243,
      "mænJ": 2244,
      "dæns": 2245,
      "ficɜ": 2246,
      "mJunɪsʌp": 2247,
      "evʌluʃʌn": 2248,
      "dɪzAnd": 2249,
      "kept": 2250,
      "vɜt": 2251,
      "mʌnʌnt": 2252,
      "ʌgræf": 2253,
      ")-": 2254,
      "ero": 2255,
      "pitɜ": 2256,
      "ælJʌn": 2257,
      "kʌnsɜn": 2258,
      "fɑrm": 2259,
      "tekst": 2260,
      "bɪgɪnɪŋ": 2261,
      "ɪlektʌd": 2262,
      "jæpʌn": 2263,
      "ʌsosiEʃʌn": 2264,
      "fɔrtiEn": 2265,
      "helθ": 2266,
      "wɔkt": 2267,
      "mAkʌl": 2268,
      "sɪkstɪskiz": 2269,
      "ækcʌwʌli": 2270,
      "tEl": 2271,
      "kantɜ": 2272,
      "ʌlad": 2273,
      "ʌzin": 2274,
      "præktʌs": 2275,
      "sɪkstɪnsin": 2276,
      "mæd": 2277,
      "ɪtself": 2278,
      "mJuziʌm": 2279,
      "dɑnt": 2280,
      "id": 2281,
      "fJucɜ": 2282,
      "ʃɜ": 2283,
      "ɪntrʌdust": 2284,
      "sɪcu": 2285,
      "nɑvʌl": 2286,
      "web": 2287,
      "θɜtit": 2288,
      "flo": 2289,
      "θɜtA": 2290,
      "ʃin": 2291,
      "ɪgzɪst": 2292,
      "θɜtʌnAn": 2293,
      "tʌwɔrdz": 2294,
      "kred": 2295,
      "ficɜz": 2296,
      "rElwE": 2297,
      "ɪntAɜ": 2298,
      "lɔr": 2299,
      "ov": 2300,
      "ʌgEʃʌn": 2301,
      "sɔŋz": 2302,
      "ʌsɪst": 2303,
      "bɑks": 2304,
      "glo": 2305,
      "haz": 2306,
      "spɜ": 2307,
      "brɔdkæst": 2308,
      "ʌfʌl": 2309,
      "jæpʌniz": 2310,
      ".,": 2311,
      "vAf": 2312,
      "kæθ": 2313,
      "luz": 2314,
      "sɪtiz": 2315,
      "flAt": 2316,
      "noz": 2317,
      "ɔrtʌd": 2318,
      "ven": 2319,
      "glæs": 2320,
      "kʌs": 2321,
      "trʌst": 2322,
      "oʃʌn": 2323,
      "ɪnkɔrpɜ": 2324,
      "ɪtwɑ": 2325,
      "θɜtAfr": 2326,
      "okʌn": 2327,
      "brE": 2328,
      "ɪmʌj": 2329,
      "nA": 2330,
      "riplEst": 2331,
      "Juʃʌn": 2332,
      "cʌnt": 2333,
      "metr": 2334,
      "eʃʌnʌl": 2335,
      "ɪmidi": 2336,
      "fɪftivAf": 2337,
      "kru": 2338,
      "wɑʃɪŋ": 2339,
      "fedɜʌl": 2340,
      "kʌnsɪst": 2341,
      "hʌzbʌnd": 2342,
      "fæ": 2343,
      "bɔr": 2344,
      "netwɜk": 2345,
      "diʌm": 2346,
      "kold": 2347,
      "pruvd": 2348,
      "θɜtʌsvin": 2349,
      "hɑsp": 2350,
      "ætʌn": 2351,
      "kʌmɜ": 2352,
      "sɪkstrA": 2353,
      "sɪkstɪtwɑ": 2354,
      "Arʌn": 2355,
      "gA": 2356,
      "dɑkJʌm": 2357,
      "rʌgɑrd": 2358,
      "ɪsɪks": 2359,
      "sɪkstrAθ": 2360,
      ")(": 2361,
      "ʌsʌn": 2362,
      "ɪstɪk": 2363,
      "mægʌzin": 2364,
      "erʌli": 2365,
      "ɪndiʌn": 2366,
      "bɜθ": 2367,
      "ʌjʌn": 2368,
      "æfrʌkʌn": 2369,
      "los": 2370,
      "densʌti": 2371,
      "host": 2372,
      "dEtʌ": 2373,
      "svɪn": 2374,
      "ʌbr": 2375,
      "pOnts": 2376,
      "biʌ": 2377,
      "nʌn": 2378,
      "epʌsod": 2379,
      "fɔrst": 2380,
      "kæpʌt": 2381,
      "ʃɑp": 2382,
      "kwescʌn": 2383,
      "drɔ": 2384,
      "θɜtAfrʊr": 2385,
      "sɪstʌmz": 2386,
      "ɔθɜ": 2387,
      "hevi": 2388,
      "enɜji": 2389,
      "muvɪŋ": 2390,
      "kɪs": 2391,
      "sɪkstion": 2392,
      "sʌgn": 2393,
      "Jʌp": 2394,
      "sɔf": 2395,
      "jenɜʌli": 2396,
      "ɜiz": 2397,
      "sʌgnɪfɪk": 2398,
      "fɔrtisvɪn": 2399,
      "plEn": 2400,
      "prʌdu": 2401,
      "spʌs": 2402,
      "ɪnkludz": 2403,
      "sʌbsʌkw": 2404,
      "fʌm": 2405,
      "fɪgJɜ": 2406,
      "ektɪŋ": 2407,
      "trEnɪŋ": 2408,
      "ʌfA": 2409,
      "hʌŋ": 2410,
      "fɔrtihɜ": 2411,
      "ʌstr": 2412,
      "pʌz": 2413,
      "fʌsɪl": 2414,
      "ɔstrElJʌ": 2415,
      "drA": 2416,
      "mitɪŋ": 2417,
      "rʌnz": 2418,
      "fɔrtɪsɪks": 2419,
      "mætɜ": 2420,
      "ʃʌnd": 2421,
      "fɪftɪskiz": 2422,
      "fɔrtinAn": 2423,
      "ɜliɜ": 2424,
      "ʃɑr": 2425,
      "sʌsp": 2426,
      "ɑmʌ": 2427,
      "ɪtu": 2428,
      "jɜmʌni": 2429,
      "dez": 2430,
      "sʌdʌn": 2431,
      "mæc": 2432,
      "fæst": 2433,
      "ʌfæk": 2434,
      "def": 2435,
      "Avʌl": 2436,
      "step": 2437,
      "nɑdʌd": 2438,
      "ɑnz": 2439,
      "livɪŋ": 2440,
      "prɪzʌn": 2441,
      "mʌj": 2442,
      "ʌtut": 2443,
      "empt": 2444,
      "wɔk": 2445,
      "mæt": 2446,
      "ægʌn": 2447,
      "vɪktɜ": 2448,
      "stɑpt": 2449,
      "rAtɪŋ": 2450,
      "græn": 2451,
      "eld": 2452,
      "fɪftɪ": 2453,
      "selvz": 2454,
      "fɪk": 2455,
      "pɜfɔrmʌns": 2456,
      "nɪrli": 2457,
      "spʌsɪfɪk": 2458,
      "inʌ": 2459,
      "ʃʌs": 2460,
      "cɑrj": 2461,
      "wʊl": 2462,
      "fɪftɔ": 2463,
      "Jul": 2464,
      "fɪftɔtio": 2465,
      "hæpʌnd": 2466,
      "wAld": 2467,
      "θɪri": 2468,
      "ɑntu": 2469,
      "ʌmp": 2470,
      "encʌl": 2471,
      "spid": 2472,
      "jɜnʌl": 2473,
      "luɪs": 2474,
      "Etɜz": 2475,
      "wɜθ": 2476,
      "θist": 2477,
      "fɪftiɪt": 2478,
      "mʌlt": 2479,
      "gʌ": 2480,
      "pɑrtɪsʌp": 2481,
      "prɪn": 2482,
      "prʌvAdʌd": 2483,
      "fɪftJur": 2484,
      "Adz": 2485,
      "ʌlɑjɪkʌl": 2486,
      "cʌnz": 2487,
      "ɑkJʌp": 2488,
      "ɪksk": 2489,
      "hɪstɔrɪk": 2490,
      "sɜand": 2491,
      "ʃoz": 2492,
      "Jo": 2493,
      "midiʌ": 2494,
      "Jʌnz": 2495,
      "lev": 2496,
      "ɔfɜ": 2497,
      "fɪfʃEn": 2498,
      "setʌl": 2499,
      "smɪθ": 2500,
      "cek": 2501,
      "sevn": 2502,
      "Anɪn": 2503,
      "pɜfɔrmd": 2504,
      "liʌn": 2505,
      "kʌnE": 2506,
      "ser": 2507,
      "ɪndiʌ": 2508,
      "kʌmplit": 2509,
      "bli": 2510,
      "tivi": 2511,
      "ɪnvɑlvd": 2512,
      "fɪftɪsevn": 2513,
      "mæstɜ": 2514,
      "sɜfʌs": 2515,
      "plEɜz": 2516,
      "cAniz": 2517,
      "mʌd": 2518,
      "vol": 2519,
      "kɑŋgr": 2520,
      "fɪftAnɪn": 2521,
      "fɪnɪʃt": 2522,
      "æθ": 2523,
      "ʌtɪvz": 2524,
      "cAnʌ": 2525,
      "rispɑn": 2526,
      "kʌmɪʃʌn": 2527,
      "etɪk": 2528,
      "ʌvʌl": 2529,
      "ʃel": 2530,
      "ækses": 2531,
      "vʌn": 2532,
      "vɪŋ": 2533,
      "kæpʌtʌl": 2534,
      "Ep": 2535,
      "ɪʃɪŋ": 2536,
      "ken": 2537,
      "jʌj": 2538,
      "dʌ": 2539,
      "sɪstɜ": 2540,
      "ægr": 2541,
      "ster": 2542,
      "sprɪŋ": 2543,
      "ligʌl": 2544,
      "dɪfʌkʌl": 2545,
      "bʌld": 2546,
      "esɜ": 2547,
      "fɔrʌn": 2548,
      "fɪŋgɜz": 2549,
      "mʌʃin": 2550,
      "mɑrt": 2551,
      "dʌb": 2552,
      "wɑʃɪŋtʌn": 2553,
      "rEzd": 2554,
      "gE": 2555,
      "trit": 2556,
      "dɪkl": 2557,
      "ɪnten": 2558,
      "Adi": 2559,
      "krɪscʌn": 2560,
      "perʌnts": 2561,
      "gEj": 2562,
      "ripɔrt": 2563,
      "fɪftiri": 2564,
      "hæpi": 2565,
      ",'": 2566,
      "ste": 2567,
      "kʌlcɜ": 2568,
      "rold": 2569,
      "riʌ": 2570,
      "ɪndɪpendʌnt": 2571,
      "æpl": 2572,
      "ɑrkʌt": 2573,
      "onʌ": 2574,
      "ɪnvArʌn": 2575,
      "jʌpæn": 2576,
      "ektɪd": 2577,
      "mEks": 2578,
      "eniwʌn": 2579,
      "ɪkʌn": 2580,
      "lAvd": 2581,
      "wɪŋ": 2582,
      "Jɑrd": 2583,
      "ficɜd": 2584,
      "pɜz": 2585,
      "ekʃʌnz": 2586,
      "sænd": 2587,
      "læk": 2588,
      "spA": 2589,
      "gɪt": 2590,
      "ɪgzækt": 2591,
      "sAʌnt": 2592,
      "sEɪŋ": 2593,
      "lɪmʌtʌd": 2594,
      "dʌbʌlJu": 2595,
      "hʌm": 2596,
      "dru": 2597,
      "ʌwʌlz": 2598,
      "erpɔrt": 2599,
      "iθ": 2600,
      "trʌdɪʃʌnʌl": 2601,
      "blɑk": 2602,
      "ɑgo": 2603,
      "skrɪp": 2604,
      "sEl": 2605,
      "pɜf": 2606,
      "demʌkr": 2607,
      "bɪʃ": 2608,
      "væli": 2609,
      "kʌnEdiʌn": 2610,
      "ʌpOntʌd": 2611,
      "pɪr": 2612,
      "lAkli": 2613,
      "lEdi": 2614,
      "hæbʌt": 2615,
      "swɪ": 2616,
      "plæt": 2617,
      "smAld": 2618,
      "nes": 2619,
      "fEvɜ": 2620,
      "rEsʌz": 2621,
      "pɜc": 2622,
      "kʌnsɪdɜ": 2623,
      "enʃʌl": 2624,
      "ekʌnɑmɪk": 2625,
      "kʌmplitʌd": 2626,
      "hop": 2627,
      "ʃɪf": 2628,
      "ʌkɜ": 2629,
      "prem": 2630,
      "sɔrs": 2631,
      "vE": 2632,
      "ɑksʌm": 2633,
      "Jæ": 2634,
      "stri": 2635,
      "ripʌbl": 2636,
      "ʌment": 2637,
      "ʌtenʃʌn": 2638,
      "lʌt": 2639,
      "kʌmpʌniz": 2640,
      "ɑrts": 2641,
      "evriwʌn": 2642,
      "ʃʌli": 2643,
      "ɑnɜ": 2644,
      "emplO": 2645,
      "dɪj": 2646,
      "regJʌl": 2647,
      "wɪk": 2648,
      "mʌm": 2649,
      "dɪfens": 2650,
      "vAʌ": 2651,
      "rAtɜ": 2652,
      "græb": 2653,
      "ren": 2654,
      "ɑnʌ": 2655,
      "nɑk": 2656,
      "preʃ": 2657,
      "kEp": 2658,
      "rɪvi": 2659,
      "stɑk": 2660,
      "sovi": 2661,
      "Jum": 2662,
      "bru": 2663,
      "ripɔr": 2664,
      "rɔŋ": 2665,
      "kɑnstʌtu": 2666,
      "spɔrts": 2667,
      "ɔfɜd": 2668,
      "prAmeri": 2669,
      "ʌdʌnt": 2670,
      "eŋ": 2671,
      "prɑblʌm": 2672,
      "|||": 2673,
      "spænɪʃ": 2674,
      "gɪvɪŋ": 2675,
      "stʌdiz": 2676,
      "vih": 2677,
      "sut": 2678,
      "æpʌl": 2679,
      "ʌtʌn": 2680,
      "skrin": 2681,
      "fʌŋkʃʌn": 2682,
      "ripɔrtʌd": 2683,
      "rɪd": 2684,
      "ɪʃu": 2685,
      "ʌtEʃʌn": 2686,
      "lʌk": 2687,
      "kʌmpJutɜ": 2688,
      "spent": 2689,
      "slAt": 2690,
      "sʌgnɪfɪkʌnt": 2691,
      "gɪtɑr": 2692,
      "kæmpEn": 2693,
      "ɪndʌvɪjʌwʌlz": 2694,
      "stEtʌd": 2695,
      "ʌtempt": 2696,
      "cæmpiʌnʃɪp": 2697,
      "ʃʊk": 2698,
      "ʌprɑksʌm": 2699,
      "priviʌs": 2700,
      "prʌfeʃʌnʌl": 2701,
      "empAɜ": 2702,
      "ʌsem": 2703,
      "kʌmɪti": 2704,
      "cæptɜ": 2705,
      "strʌkcɜ": 2706,
      "sɪd": 2707,
      "dʌl": 2708,
      "wiks": 2709,
      "pʊr": 2710,
      "rʌsiv": 2711,
      "fɪlmz": 2712,
      "rikwAɜd": 2713,
      "rejɪst": 2714,
      "ʌpɜ": 2715,
      "mænJʌfæk": 2716,
      "holdɪŋ": 2717,
      "riʌl": 2718,
      "ɪjʌs": 2719,
      "skA": 2720,
      "izi": 2721,
      "mɜi": 2722,
      "kod": 2723,
      "trEn": 2724,
      "ʌndɜstænd": 2725,
      "ðemselvz": 2726,
      "rul": 2727,
      "ɪnj": 2728,
      "kʌlekʃʌn": 2729,
      "kɑzd": 2730,
      "hɑspɪtʌl": 2731,
      "pɑrl": 2732,
      "lAd": 2733,
      "fokʌs": 2734,
      "dæmʌj": 2735,
      "don": 2736,
      "ɪrɪŋ": 2737,
      "ɔltɜn": 2738,
      "pEj": 2739,
      "ɔlt": 2740,
      "pɜtɪk": 2741,
      "Encʌnt": 2742,
      "ænjʌl": 2743,
      "sɜt": 2744,
      "sɑri": 2745,
      "sɪkJʊrʌti": 2746,
      "ripʌblʌk": 2747,
      "tEks": 2748,
      "minɪŋ": 2749,
      "fʌ": 2750,
      "ɔθ": 2751,
      "æbɜ": 2752,
      "brænd": 2753,
      "sAnd": 2754,
      "ʌkæd": 2755,
      "hæps": 2756,
      "mʌnz": 2757,
      "kɑpi": 2758,
      "hʌl": 2759,
      "rivJu": 2760,
      "ʌdɑp": 2761,
      "bɜo": 2762,
      "ɪtɔri": 2763,
      "ʌfʌkEʃʌn": 2764,
      "gEz": 2765,
      "ækʃʌnz": 2766,
      "wɪʃ": 2767,
      "tɜi": 2768,
      "rʌʃʌn": 2769,
      "sʌbj": 2770,
      "priz": 2771,
      "skɑl": 2772,
      "hum": 2773,
      "stæf": 2774,
      "bies": 2775,
      "klæsɪk": 2776,
      "pɑrtɪkJʌl": 2777,
      "ɪtiz": 2778,
      "ʌsAd": 2779,
      "fɔrʌst": 2780,
      "vælJu": 2781,
      "ætʌs": 2782,
      "kʌlɜ": 2783,
      "ɔrgʌnʌzEʃʌn": 2784,
      "mʌtɪriʌl": 2785,
      "nEmz": 2786,
      "gʌvɜnɜ": 2787,
      "pʌlz": 2788,
      "rEz": 2789,
      "mɪnɪst": 2790,
      "ɑpɜEʃʌnz": 2791,
      "spɑt": 2792,
      "Jʌtɪv": 2793,
      "opʌnɪŋ": 2794,
      "pɑrtɪkJʌlɜli": 2795,
      "ækts": 2796,
      "ʌji": 2797,
      "mAl": 2798,
      "plænt": 2799,
      "mɑnt": 2800,
      "Jɜz": 2801,
      "relʌtɪv": 2802,
      "hʌn": 2803,
      "wɪntɜ": 2804,
      "wɑc": 2805,
      "(\"": 2806,
      "riv": 2807,
      "nEvi": 2808,
      "hʌ": 2809,
      "ænti": 2810,
      "pɜsɪn": 2811,
      "kwAt": 2812,
      "pɜtɪkJʌlɜ": 2813,
      "mJu": 2814,
      "klEmd": 2815,
      "rɪlEtɪd": 2816,
      "sloli": 2817,
      "bɪlivd": 2818,
      "fɜt": 2819,
      "spik": 2820,
      "mostli": 2821,
      "θɪŋkɪŋ": 2822,
      "kʌvɜd": 2823,
      "ɑni": 2824,
      "pɜsɪnɪl": 2825,
      "wʌndɜ": 2826,
      "teknɑlʌji": 2827,
      "perɪs": 2828,
      "kʌmɜʃʌl": 2829,
      "evʌdʌns": 2830,
      "ɔtʌm": 2831,
      "seks": 2832,
      "sikr": 2833,
      "kæptʌn": 2834,
      "kɜʌntli": 2835,
      "kæsʌl": 2836,
      "ʃoldɜ": 2837,
      "terɪtɔri": 2838,
      "cEnjʌz": 2839,
      "wAz": 2840,
      "ɪlʌti": 2841,
      "sʌksesfʌl": 2842,
      "ɪmidiʌtli": 2843,
      "lokEʃʌn": 2844,
      "ɔstrElJʌn": 2845,
      "bɪldɪŋz": 2846,
      "ʃʌk": 2847,
      "vɜjɪn": 2848,
      "ɪnkrist": 2849,
      "pɜpʌs": 2850,
      "wʌnz": 2851,
      "ɑgrʌfi": 2852,
      "rɪpl": 2853,
      "mantʌn": 2854,
      "trʌs": 2855,
      "sɪlvɜ": 2856,
      "kɑmpʌt": 2857,
      "grik": 2858,
      "cæns": 2859,
      "lɑrjɜ": 2860,
      "ektɪvli": 2861,
      "Jʊri": 2862,
      "metʌl": 2863,
      "sik": 2864,
      "bæg": 2865,
      "mentʌl": 2866,
      "bit": 2867,
      "sæl": 2868,
      "fræŋk": 2869,
      "nEbɜ": 2870,
      "tɜmz": 2871,
      "de": 2872,
      "Jel": 2873,
      "æktʌd": 2874,
      "fEl": 2875,
      "kʌmplitli": 2876,
      "sɜi": 2877,
      "soviʌt": 2878,
      "bEbi": 2879,
      "estʌm": 2880,
      "æktɜ": 2881,
      "ɪstʌns": 2882,
      "ʌkædʌmi": 2883,
      "jekts": 2884,
      "ʌlɪŋ": 2885,
      "ɪksept": 2886,
      "tanʃɪp": 2887,
      "ɑli": 2888,
      "pɑsʌb": 2889,
      "kʌndʌk": 2890,
      "hɔ": 2891,
      "hɜt": 2892,
      "kʌmz": 2893,
      "stEʃʌnz": 2894,
      "bɜd": 2895,
      "ɔld": 2896,
      "medʌkʌl": 2897,
      "pæl": 2898,
      "ʌsosiEtʌd": 2899,
      "Alʌndz": 2900,
      "ʌtemp": 2901,
      "festʌvʌl": 2902,
      "kɑmpleks": 2903,
      "Etiz": 2904,
      "ɪfekt": 2905,
      "cænʌl": 2906,
      "ɜvd": 2907,
      "hazɪŋ": 2908,
      "priviʌsli": 2909,
      "revʌluʃʌn": 2910,
      "lejʌs": 2911,
      "pɑrlʌmʌnt": 2912,
      "ric": 2913,
      "Ats": 2914,
      "læf": 2915,
      "mɜʌs": 2916,
      "læ": 2917,
      "eriz": 2918,
      "rʌfɜd": 2919,
      "kloz": 2920,
      "ræŋk": 2921,
      "drʌm": 2922,
      "dɜektʌd": 2923,
      "nEcɜ": 2924,
      "stɑrtɪŋ": 2925,
      "koc": 2926,
      "junJɜ": 2927,
      "ɪnstʌtut": 2928,
      "kɑst": 2929,
      "rʌk": 2930,
      "rɪktɜz": 2931,
      "rilEʃʌnʃɪp": 2932,
      "coz": 2933,
      "mæl": 2934,
      "drɑpt": 2935,
      "mɜin": 2936,
      "pAl": 2937,
      "kʌv": 2938,
      "ɪkspɪriʌns": 2939,
      "nɑmʌn": 2940,
      "pæθ": 2941,
      "kærɪktɜz": 2942,
      "hæŋ": 2943,
      "Aʌn": 2944,
      "ɑki": 2945,
      "prAɜ": 2946,
      "rɪc": 2947,
      "prʌdus": 2948,
      "sɪmpli": 2949,
      "pɜhæps": 2950,
      "ʌmʌn": 2951,
      "timz": 2952,
      "ʌdɪʃʌnʌl": 2953,
      "kæθlɪk": 2954,
      "lænt": 2955,
      "ɪtælJʌn": 2956,
      "hɪstɔrɪkʌl": 2957,
      "gAd": 2958,
      "ɑŋ": 2959,
      "klɪn": 2960,
      "skwɑ": 2961,
      "pliz": 2962,
      "rɪb": 2963,
      "ɪzʌb": 2964,
      "ænJuʌl": 2965,
      "Junʌt": 2966,
      "ʌfɜ": 2967,
      "ræm": 2968,
      "swɑ": 2969,
      "ʃɔr": 2970,
      "θret": 2971,
      "letɜ": 2972,
      "dɪtɜ": 2973,
      "ʌpɪrz": 2974,
      "dɜekʃʌn": 2975,
      "dʌc": 2976,
      "ɪnstr": 2977,
      "plEsʌz": 2978,
      "entɜd": 2979,
      "bɪʃʌp": 2980,
      "dɜektli": 2981,
      "studio": 2982,
      "ʃon": 2983,
      "prɑvʌns": 2984,
      "ɔfʌsɜ": 2985,
      "trænzl": 2986,
      "kærid": 2987,
      "ʌlt": 2988,
      "dʌk": 2989,
      "kʌlʌm": 2990,
      "ɪnstɪtu": 2991,
      "sæk": 2992,
      "meksʌk": 2993,
      "tɔkɪŋ": 2994,
      "ris": 2995,
      "ɪnɪʃʌli": 2996,
      "kɪŋz": 2997,
      "wɔrm": 2998,
      "Os": 2999,
      "bAnd": 3000,
      "mʌjɔrʌti": 3001,
      "nʌl": 3002,
      "sAkʌl": 3003,
      "ʌsti": 3004,
      "dɪlɪv": 3005,
      "mɑm": 3006,
      "ʌkʌlz": 3007,
      "stʌm": 3008,
      "kɑŋgrʌs": 3009,
      "rɪlɪjʌs": 3010,
      "jes": 3011,
      "kʌpʌl": 3012,
      "swit": 3013,
      "rɪst": 3014,
      "kler": 3015,
      "muvi": 3016,
      "\")": 3017,
      "rɪspɑns": 3018,
      "sʌbjɪkt": 3019,
      "etr": 3020,
      "gæs": 3021,
      "rAz": 3022,
      "sko": 3023,
      "mAlz": 3024,
      "ɜni": 3025,
      "nʌmbɜz": 3026,
      "ʌgrid": 3027,
      "æfɪk": 3028,
      "sinJɜ": 3029,
      "sepʃʌn": 3030,
      "ʃɪt": 3031,
      "ɪŋkt": 3032,
      "ævʌn": 3033,
      "bæs": 3034,
      "ʌpɪrʌns": 3035,
      "jiz": 3036,
      "sʌf": 3037,
      "æfrʌkʌ": 3038,
      "ɑrgJu": 3039,
      "sEnt": 3040,
      "dEbJu": 3041,
      "ʃʌt": 3042,
      "trɪp": 3043,
      "nɔrmʌl": 3044,
      "grEd": 3045,
      "gest": 3046,
      "bOz": 3047,
      "merɪj": 3048,
      "sʌbst": 3049,
      "emɪk": 3050,
      "ʌprɑksʌmʌtli": 3051,
      "rɪmEnz": 3052,
      "rɪf": 3053,
      "gɜlz": 3054,
      "leŋkθ": 3055,
      "ɪnfluʌns": 3056,
      "helpt": 3057,
      "wɑr": 3058,
      "tɑrg": 3059,
      "bʌk": 3060,
      "fEmʌs": 3061,
      "rɪmEn": 3062,
      "kɔrnɜ": 3063,
      "rɪpi": 3064,
      "ʌsu": 3065,
      "ik": 3066,
      "vʌ": 3067,
      "wɪsp": 3068,
      "vɪzʌt": 3069,
      "fʌt": 3070,
      "dep": 3071,
      "wʌ": 3072,
      "bon": 3073,
      "fɪfθ": 3074,
      "hɔrs": 3075,
      "ʃʌkɑgo": 3076,
      "ɔriʌ": 3077,
      "()": 3078,
      "kEsʌz": 3079,
      "hæpʌn": 3080,
      "numɜʌs": 3081,
      "ɪkʌ": 3082,
      "jA": 3083,
      "wɪndo": 3084,
      "dæd": 3085,
      "ædmɪnɪst": 3086,
      "studʌnt": 3087,
      "sekr": 3088,
      "rer": 3089,
      "strim": 3090,
      "wEtɪŋ": 3091,
      "fʌnæn": 3092,
      "krɪp": 3093,
      "we": 3094,
      "ekcɜ": 3095,
      "stil": 3096,
      "ɜEnj": 3097,
      "hotel": 3098,
      "dɪsɪʒʌn": 3099,
      "θɪk": 3100,
      "fɪlʌp": 3101,
      "sevʌntiz": 3102,
      "sʌdʌnli": 3103,
      "lɔnct": 3104,
      "wAnd": 3105,
      "bic": 3106,
      "stɔriz": 3107,
      "frikw": 3108,
      "kloð": 3109,
      "nesʌs": 3110,
      "gʌst": 3111,
      "jʌnz": 3112,
      "dɪpl": 3113,
      "pɜsent": 3114,
      "lɔs": 3115,
      "væmp": 3116,
      "kʌnsɜv": 3117,
      "dɪvAd": 3118,
      "Anz": 3119,
      "regJʌlɜ": 3120,
      "æktɪŋ": 3121,
      "jos": 3122,
      "pɑlʌsi": 3123,
      "motɜ": 3124,
      "bɪkʌmɪŋ": 3125,
      "mun": 3126,
      "onɜ": 3127,
      "trE": 3128,
      "ʌkwA": 3129,
      "ikw": 3130,
      "ɜAvd": 3131,
      "teksʌs": 3132,
      "pɑm": 3133,
      "mænʌjmʌnt": 3134,
      "poʌt": 3135,
      "ʌbɪlɪti": 3136,
      "tæks": 3137,
      "pʌsɪfɪk": 3138,
      "pæsʌn": 3139,
      "wɑct": 3140,
      "prʌfesɜ": 3141,
      "gʌnz": 3142,
      "bæŋ": 3143,
      "kændʌd": 3144,
      "pɑz": 3145,
      "tɪpɪkli": 3146,
      "ɪdi": 3147,
      "lætɜ": 3148,
      "prɑpɜti": 3149,
      "kul": 3150,
      "prʌmo": 3151,
      "elʌ": 3152,
      "legz": 3153,
      "kɪn": 3154,
      "bɪɑnd": 3155,
      "Avz": 3156,
      "Aɜlʌnd": 3157,
      "len": 3158,
      "nEʃʌn": 3159,
      "ɪnkɔrpɜEtʌd": 3160,
      "defʌn": 3161,
      "mJuzɪkʌl": 3162,
      "ɑno": 3163,
      "skʌl": 3164,
      "prAs": 3165,
      "dɪstʌns": 3166,
      "dɪgri": 3167,
      "wɔrn": 3168,
      "ʌwɔrdʌd": 3169,
      "ɪndʌk": 3170,
      "vEn": 3171,
      "brok": 3172,
      "ʃæd": 3173,
      "gEt": 3174,
      "grEtɜ": 3175,
      "brAt": 3176,
      "erʌktɜ": 3177,
      "kriEt": 3178,
      "rʌm": 3179,
      "tɑ": 3180,
      "josʌf": 3181,
      "dɜz": 3182,
      "mænʌjd": 3183,
      "ɪndʌvɪjʌwʌl": 3184,
      "goz": 3185,
      "kɑk": 3186,
      "kJʌl": 3187,
      "restɜ": 3188,
      "bæn": 3189,
      "ɔriʌn": 3190,
      "ʌsʌz": 3191,
      "ɪmæ": 3192,
      "nAntiz": 3193,
      "kɑrz": 3194,
      "kant": 3195,
      "ɪʃuz": 3196,
      "fɪld": 3197,
      "dɑr": 3198,
      "sɪmpʌl": 3199,
      "pa": 3200,
      "rilA": 3201,
      "pEt": 3202,
      "priper": 3203,
      "dEnjɜ": 3204,
      "lʊks": 3205,
      "tEnd": 3206,
      "slE": 3207,
      "progræmz": 3208,
      "hAwE": 3209,
      "fs": 3210,
      "stɑrz": 3211,
      "prɪvent": 3212,
      "ɜbʌn": 3213,
      "prɪti": 3214,
      "ɪriɜ": 3215,
      "truθ": 3216,
      "brEn": 3217,
      "kæmɜ": 3218,
      "nEʃʌnz": 3219,
      "bJutʌfʌl": 3220,
      "rEd": 3221,
      "risʌnt": 3222,
      "jɪm": 3223,
      "fʌk": 3224,
      "je": 3225,
      "ðerfɔr": 3226,
      "ʌmant": 3227,
      "ɪgzæktli": 3228,
      "ɪntel": 3229,
      "fEld": 3230,
      "vʌs": 3231,
      "θæŋk": 3232,
      "ɑdi": 3233,
      "ʌwer": 3234,
      "wɔrd": 3235,
      "sɑr": 3236,
      "mɪtʌd": 3237,
      "herʌt": 3238,
      "sekrʌteri": 3239,
      "kʌntEnz": 3240,
      "vɜAʌti": 3241,
      "nɪrbA": 3242,
      "ɪʒʌnz": 3243,
      "græju": 3244,
      "Arɪʃ": 3245,
      "ælʌgz": 3246,
      "bisi": 3247,
      "rezɪdʌnts": 3248,
      "sno": 3249,
      "ɪnkrisɪŋ": 3250,
      "ɪkɑn": 3251,
      "tanz": 3252,
      "ɪmpruv": 3253,
      "smɔlɜ": 3254,
      "dɪskʌvɜd": 3255,
      "sɪkstiz": 3256,
      "gi": 3257,
      "ges": 3258,
      "ɪnkris": 3259,
      "notʌd": 3260,
      "hAʌst": 3261,
      "rekʌgnAzd": 3262,
      "pandz": 3263,
      "bɪhEv": 3264,
      "stæ": 3265,
      "kɪ": 3266,
      "ɪgzek": 3267,
      "mɪʃ": 3268,
      "mænJʌfækcɜ": 3269,
      "prot": 3270,
      "tɪm": 3271,
      "brɪtʌn": 3272,
      "ɪkspektʌd": 3273,
      "riʌn": 3274,
      "preʃɜ": 3275,
      "væmpAr": 3276,
      "hɪs": 3277,
      "ɪksper": 3278,
      "plænz": 3279,
      "ɑpɜEtʌd": 3280,
      "lɪvz": 3281,
      "brʌðɜz": 3282,
      "fiʌ": 3283,
      "pEʃʌn": 3284,
      "ɑtʌ": 3285,
      "fɪzɪkʌl": 3286,
      "lændz": 3287,
      "fʌnænʃʌl": 3288,
      "sterd": 3289,
      "pɑrtnɜ": 3290,
      "-''": 3291,
      "frEm": 3292,
      "dɪvAs": 3293,
      "rijʌnʌl": 3294,
      "memɜi": 3295,
      "lod": 3296,
      "sɔrt": 3297,
      "bændz": 3298,
      "Eʒʌ": 3299,
      "ʌdz": 3300,
      "entɜi": 3301,
      "tæl": 3302,
      "ænst": 3303,
      "ʌwɔrdz": 3304,
      "eriʌn": 3305,
      "hɪr": 3306,
      "ʌpɑl": 3307,
      "refɜʌns": 3308,
      "mæks": 3309,
      "niz": 3310,
      "lɪsʌn": 3311,
      "seʃʌn": 3312,
      "sʌns": 3313,
      "rɪʃ": 3314,
      "spok": 3315,
      "stætʌs": 3316,
      "fAtɪŋ": 3317,
      "twentiʌθ": 3318,
      "cʌl": 3319,
      "sets": 3320,
      "pɪn": 3321,
      "spɔrt": 3322,
      "rɪbJ": 3323,
      "ʌlA": 3324,
      "strʌg": 3325,
      "kEn": 3326,
      "kʊk": 3327,
      "etɜ": 3328,
      "trups": 3329,
      "elʌmʌnts": 3330,
      "biʌn": 3331,
      "wAn": 3332,
      "nAntinθ": 3333,
      "kʌlcɜʌl": 3334,
      "ʌpt": 3335,
      "ɪzEʃʌn": 3336,
      "læŋgwʌjʌz": 3337,
      "ɔrdɜd": 3338,
      "sɪtɪŋ": 3339,
      "kerʌktɜ": 3340,
      "slAtli": 3341,
      "edwɜd": 3342,
      "lɪniɜ": 3343,
      "elʌv": 3344,
      "engEj": 3345,
      "sʌnd": 3346,
      "plEz": 3347,
      "ɪkspreʃʌn": 3348,
      "ɪtʌli": 3349,
      "mEt": 3350,
      "mEɜ": 3351,
      "hasʌz": 3352,
      "vot": 3353,
      "nel": 3354,
      "soljɜz": 3355,
      "sʌpɔrtʌd": 3356,
      "ʌkEʒʌn": 3357,
      "rEdi": 3358,
      "rɪsk": 3359,
      "kɑntrækt": 3360,
      "bɔrdɜ": 3361,
      "..": 3362,
      "bɑk": 3363,
      "mAk": 3364,
      "jɪŋ": 3365,
      "triz": 3366,
      "prʌpozd": 3367,
      "slip": 3368,
      "ʌdli": 3369,
      "bɪld": 3370,
      "dɪfʌkʌlt": 3371,
      "pænɪk": 3372,
      "pɔrc": 3373,
      "rimuvd": 3374,
      "mɑrtʌn": 3375,
      "iwi": 3376,
      "jʌstʌs": 3377,
      "ruts": 3378,
      "rɪtAr": 3379,
      "mʌltʌpʌl": 3380,
      "||||-||": 3381,
      "holi": 3382,
      "træks": 3383,
      "Eniʌn": 3384,
      "ʌdv": 3385,
      "wʌtevɜ": 3386,
      ".)": 3387,
      "lætʌn": 3388,
      "fɪnɪʃ": 3389,
      "dɪfitʌd": 3390,
      "氵''": 3391,
      "kɑnfɜʌns": 3392,
      "ʌnɪŋ": 3393,
      "ʌper": 3394,
      "gu": 3395,
      "sepɜɪt": 3396,
      "empɜɜ": 3397,
      "ænjʌlɪs": 3398,
      "fred": 3399,
      "dɪʃ": 3400,
      "ʌkɑm": 3401,
      "jer": 3402,
      "stæn": 3403,
      "kʌnf": 3404,
      "ɔnlAn": 3405,
      "mænʌjɜ": 3406,
      "dɪziz": 3407,
      "pɑrtiz": 3408,
      "drim": 3409,
      "ʌgrimʌnt": 3410,
      "mɪk": 3411,
      "ʃold": 3412,
      "rɪzʌlts": 3413,
      "mAnɜ": 3414,
      "ɑrtʌkʌl": 3415,
      "premɪr": 3416,
      "flæg": 3417,
      "bɪlɔŋ": 3418,
      "cuʌl": 3419,
      "nz": 3420,
      "sɜvAv": 3421,
      "Aɜn": 3422,
      "wEst": 3423,
      "rʌkɔrdɪŋ": 3424,
      "ton": 3425,
      "rilAzd": 3426,
      "pul": 3427,
      "emʌn": 3428,
      "flæʃ": 3429,
      "juɪʃ": 3430,
      "ʌvOd": 3431,
      "rɪmEnɪŋ": 3432,
      "bJʊr": 3433,
      "wAr": 3434,
      "ʌpɑrt": 3435,
      "olɪmp": 3436,
      "cæn": 3437,
      "ʌθɔrʌti": 3438,
      "ɑrtʌsts": 3439,
      "sɪriʌs": 3440,
      "hit": 3441,
      "ɪntendʌd": 3442,
      "ɑrki": 3443,
      "stɪk": 3444,
      "pEd": 3445,
      "plʌs": 3446,
      "rɪpʌbl": 3447,
      "prɑblʌmz": 3448,
      "duk": 3449,
      "ɪkstrim": 3450,
      "kænt": 3451,
      "ɪstæblɪʃ": 3452,
      "sikrʌt": 3453,
      "dʌg": 3454,
      "rɪbJu": 3455,
      "sEv": 3456,
      "brið": 3457,
      "fot": 3458,
      "wʊlf": 3459,
      "Adɪŋ": 3460,
      "ʌkts": 3461,
      "nukli": 3462,
      "ɔriʌl": 3463,
      "cælʌn": 3464,
      "wEv": 3465,
      "steps": 3466,
      "estʌd": 3467,
      "pʌd": 3468,
      "dɪr": 3469,
      "kɑmʌnli": 3470,
      "trEl": 3471,
      "sɔft": 3472,
      "snæ": 3473,
      "kɔ": 3474,
      "æstɪk": 3475,
      "ʌkant": 3476,
      "jʌw": 3477,
      "stept": 3478,
      "spek": 3479,
      "pɪl": 3480,
      "lind": 3481,
      "ʃod": 3482,
      "ʃɑk": 3483,
      "prezʌns": 3484,
      "op": 3485,
      "lʌndz": 3486,
      "siɪŋ": 3487,
      "pʊʃt": 3488,
      "ʌsʌs": 3489,
      "plænd": 3490,
      "mɪks": 3491,
      "pɜs": 3492,
      "ædmɪnɪstrEʃʌn": 3493,
      "sɪcuEʃʌn": 3494,
      "lɪs": 3495,
      "gæn": 3496,
      "ʌsiz": 3497,
      "ʌcɜ": 3498,
      "sterz": 3499,
      "nʌt": 3500,
      "goldʌn": 3501,
      "sʌbsʌkwʌntli": 3502,
      "it": 3503,
      "prɪnsʌpʌl": 3504,
      "hɑn": 3505,
      "om": 3506,
      "lO": 3507,
      "wɑcɪŋ": 3508,
      "kɑntækt": 3509,
      "ɪnɜ": 3510,
      "kerʌlAn": 3511,
      "ʌltʌm": 3512,
      "kʌndɪʃʌnz": 3513,
      "lEd": 3514,
      "brokʌn": 3515,
      "Juzɪz": 3516,
      "jʌnt": 3517,
      "demʌkrætɪk": 3518,
      "skɪl": 3519,
      "sAts": 3520,
      "pʊl": 3521,
      "ʌsembli": 3522,
      "sim": 3523,
      "kɑnsʌnt": 3524,
      "bɪr": 3525,
      "vɪktɜi": 3526,
      "ɑrtʌst": 3527,
      "kɑp": 3528,
      "θro": 3529,
      "jɜi": 3530,
      "ɑf": 3531,
      "rodz": 3532,
      "fAl": 3533,
      "wɔlz": 3534,
      "tɔl": 3535,
      "erio": 3536,
      "entr": 3537,
      "ɔriz": 3538,
      "pɪkt": 3539,
      "brænc": 3540,
      "ɑro": 3541,
      "ɪndʌstriʌl": 3542,
      "læft": 3543,
      "bæsk": 3544,
      "diz": 3545,
      "θrot": 3546,
      "ɪntɜvJu": 3547,
      "kæmpʌs": 3548,
      "ɪkʌlz": 3549,
      "cOs": 3550,
      "ɪŋtʌn": 3551,
      "taɜ": 3552,
      "mEkʌp": 3553,
      "erʌn": 3554,
      "felo": 3555,
      "tempɜ": 3556,
      "Ji": 3557,
      "nAs": 3558,
      "dɪjʌtʌl": 3559,
      "tɜd": 3560,
      "ekstr": 3561,
      "dɔg": 3562,
      "krɪmʌn": 3563,
      "groθ": 3564,
      "rɪn": 3565,
      "setʌld": 3566,
      "fandEʃʌn": 3567,
      "dræg": 3568,
      "cestɜ": 3569,
      "kʌstʌm": 3570,
      "flit": 3571,
      "ʌlti": 3572,
      "ʌkʌm": 3573,
      "nɑlʌj": 3574,
      "sekʃu": 3575,
      "cEm": 3576,
      "tempʌl": 3577,
      "tekni": 3578,
      "ʌliz": 3579,
      "dEli": 3580,
      "ents": 3581,
      "ɪfekts": 3582,
      "flæt": 3583,
      "sɑft": 3584,
      "tAps": 3585,
      "flA": 3586,
      "græjʌw": 3587,
      "ævʌnu": 3588,
      "mʌlti": 3589,
      "æktɪvʌtiz": 3590,
      "ɪgzekJʌtɪv": 3591,
      "lɪstʌd": 3592,
      "ɪkstendʌd": 3593,
      "θɜt": 3594,
      "ɪʃud": 3595,
      "rispɑnsʌbʌl": 3596,
      "ʌciv": 3597,
      "wɜkɜz": 3598,
      "ʌnEʃʌn": 3599,
      "sɜkʌl": 3600,
      "ɜʌl": 3601,
      "lɔz": 3602,
      "mesʌj": 3603,
      "dɪskʌvɜ": 3604,
      "rolz": 3605,
      "ɑrmd": 3606,
      "bɑn": 3607,
      "fæn": 3608,
      "dɪmænd": 3609,
      "levʌlz": 3610,
      "Juʒʌwʌl": 3611,
      "rulz": 3612,
      "mEnli": 3613,
      "wElz": 3614,
      "twA": 3615,
      "bɑb": 3616,
      "prʌvAdz": 3617,
      "wɪnɪŋ": 3618,
      "\",\"": 3619,
      "sʌksi": 3620,
      "prɑdʌkts": 3621,
      "rɪkwest": 3622,
      "ʌfɪʃʌli": 3623,
      "kʌmfɜt": 3624,
      "pEpɜz": 3625,
      "klu": 3626,
      "otʌ": 3627,
      "ɪnstrʌk": 3628,
      "ɪkspres": 3629,
      "kʌnvɜ": 3630,
      "ɪlJʌn": 3631,
      "strEnj": 3632,
      "ɪkʌli": 3633,
      "wet": 3634,
      "pɪkcɜ": 3635,
      "θer": 3636,
      "rom": 3637,
      "mæθ": 3638,
      "bEsɪk": 3639,
      "ɪʃʌnd": 3640,
      "tʌb": 3641,
      "ɑlʌ": 3642,
      "mɜdɜ": 3643,
      "%)": 3644,
      "kɑrl": 3645,
      "Emd": 3646,
      "prʌsi": 3647,
      "ɪgʌn": 3648,
      "hAli": 3649,
      "ʌtendʌd": 3650,
      "ʌdmɪnʌst": 3651,
      "erʌti": 3652,
      "groɪŋ": 3653,
      "vɑlJum": 3654,
      "sʌgjestʌd": 3655,
      "pEntɪŋ": 3656,
      "dat": 3657,
      "fildz": 3658,
      "ʊrʌl": 3659,
      "rɪplAd": 3660,
      "setɪŋ": 3661,
      "kæbʌn": 3662,
      "kɑmpʌtɪʃʌn": 3663,
      "wɔkɪŋ": 3664,
      "rEʃʌl": 3665,
      "træfɪk": 3666,
      "sɜpr": 3667,
      "skrim": 3668,
      "nesʌseri": 3669,
      "æŋgʌl": 3670,
      "ɪʃi": 3671,
      "prizentʌd": 3672,
      "gæðɜ": 3673,
      "mæjɪk": 3674,
      "ɪpi": 3675,
      "jEk": 3676,
      "ʌfr": 3677,
      "trænspɔrt": 3678,
      "mJunɪsʌpælʌti": 3679,
      "dɑmʌn": 3680,
      "ʌbænd": 3681,
      "pɜfɪkt": 3682,
      "sɪg": 3683,
      "lɜz": 3684,
      "cuz": 3685,
      "wɪndoz": 3686,
      "tɜnɪŋ": 3687,
      "wɪspɜd": 3688,
      "prAmerʌli": 3689,
      "kʌmperd": 3690,
      "ʌdel": 3691,
      "rʌfl": 3692,
      "kʌmpoz": 3693,
      "wɪʃt": 3694,
      "gAz": 3695,
      "ɪntelʌj": 3696,
      "æmpʌlz": 3697,
      "ɪtEʃʌn": 3698,
      "Eni": 3699,
      "kʌmpi": 3700,
      "sAdz": 3701,
      "mæθʌm": 3702,
      "zilʌnd": 3703,
      "kræʃ": 3704,
      "ɔrdɜz": 3705,
      "tɜmʌn": 3706,
      "paɜfʌl": 3707,
      "freʃ": 3708,
      "vɜjɪnJʌ": 3709,
      "glænst": 3710,
      "ælbʌmz": 3711,
      "rɑb": 3712,
      "kwɔrtɜz": 3713,
      "paɜz": 3714,
      "tw": 3715,
      "tɑrgʌt": 3716,
      "kætʌg": 3717,
      "bud": 3718,
      "græf": 3719,
      "bEsbɔl": 3720,
      "stʌdid": 3721,
      "wAdli": 3722,
      "sɪŋɜ": 3723,
      "ʌnʌl": 3724,
      "bibisi": 3725,
      "ʌtud": 3726,
      "kɔrn": 3727,
      "bɪsAd": 3728,
      "sɪtʌz": 3729,
      "kɪk": 3730,
      "ɪktʌd": 3731,
      "kwɪk": 3732,
      "letɜz": 3733,
      "nEvʌl": 3734,
      "efɜt": 3735,
      "stAn": 3736,
      "stʌt": 3737,
      "ɑbvi": 3738,
      "kruz": 3739,
      "redɪŋ": 3740,
      "meʒ": 3741,
      "fʊli": 3742,
      "ænθ": 3743,
      "lAts": 3744,
      "skej": 3745,
      "skejʊ": 3746,
      "ɪlektrɪk": 3747,
      "fænt": 3748,
      "ɪdʌn": 3749,
      "kʌndɪʃʌn": 3750,
      "ʌproc": 3751,
      "fEz": 3752,
      "kɪcʌn": 3753,
      "bɑdiz": 3754,
      "vɔn": 3755,
      "kʌlʌmbiʌ": 3756,
      "kʌmɪt": 3757,
      "kætʌl": 3758,
      "kA": 3759,
      "bEsʌs": 3760,
      "ɔfʌsɜz": 3761,
      "fold": 3762,
      "ækʌd": 3763,
      "stEdiʌm": 3764,
      "empti": 3765,
      "ɪnɪʃʌl": 3766,
      "Juθ": 3767,
      "splɪt": 3768,
      "wEk": 3769,
      "vɪʒʌn": 3770,
      "saθist": 3771,
      "ristr": 3772,
      "tʌnAt": 3773,
      "sɔrd": 3774,
      "reprʌzentʌd": 3775,
      "ɑpɜtun": 3776,
      "ɑpɜEtɪŋ": 3777,
      "simz": 3778,
      "benʌf": 3779,
      "pmʌnt": 3780,
      "streŋkθ": 3781,
      "tro": 3782,
      "ʃæl": 3783,
      "fɔrmɜli": 3784,
      "prɪs": 3785,
      "livz": 3786,
      "pɑk": 3787,
      "pɑzʌtɪv": 3788,
      "eʒɜ": 3789,
      "tæk": 3790,
      "kʌntempɜ": 3791,
      "dɪstrOd": 3792,
      "Azɜ": 3793,
      "ʌdɔr": 3794,
      "ɜb": 3795,
      "tɪl": 3796,
      "ʒʌwʌl": 3797,
      "lEn": 3798,
      "Evi": 3799,
      "bot": 3800,
      "ʌdɑptʌd": 3801,
      "menʃʌnd": 3802,
      "spes": 3803,
      "lɑrjli": 3804,
      "pli": 3805,
      "demʌn": 3806,
      "ktɑm": 3807,
      "kʌmændɜ": 3808,
      "ktɑmwo": 3809,
      "epɜ": 3810,
      "æpt": 3811,
      "dɪstr": 3812,
      "swɪc": 3813,
      "ɑrʌ": 3814,
      "pærɪʃ": 3815,
      "ælʌsʌs": 3816,
      "notʌbʌl": 3817,
      "gEnd": 3818,
      "prʌtekʃʌn": 3819,
      "kɜɪj": 3820,
      "pJʊr": 3821,
      "lʌvd": 3822,
      "dAʌl": 3823,
      "wɪnz": 3824,
      "stɔrm": 3825,
      "pipʌlz": 3826,
      "pʌtenʃʌl": 3827,
      "prʌdusɜ": 3828,
      "ɪkscEnj": 3829,
      "dɪstrʌb": 3830,
      "tʌŋ": 3831,
      "ɪlɪzʌb": 3832,
      "flɪkt": 3833,
      "ʌkɜd": 3834,
      "θæŋks": 3835,
      "ædʌm": 3836,
      "smo": 3837,
      "ɪntʌgr": 3838,
      "stʌf": 3839,
      "ʃɔrtli": 3840,
      "mæksʌm": 3841,
      "zu": 3842,
      "gɑrdʌn": 3843,
      "kɔrʌsp": 3844,
      "meʒɜ": 3845,
      "ɪni": 3846,
      "jonz": 3847,
      "bɪhEvJɜ": 3848,
      "kɑnsept": 3849,
      "selz": 3850,
      "prɑdʌkt": 3851,
      "lɪbɜʌl": 3852,
      "tritmʌnt": 3853,
      "din": 3854,
      "pɔz": 3855,
      "mɑdʌlz": 3856,
      "ʌkwAɜd": 3857,
      "sElz": 3858,
      "ʌdvæns": 3859,
      "ækseptɪd": 3860,
      "ɪʃʌnt": 3861,
      "bʌlɪŋ": 3862,
      "trʌbʌl": 3863,
      "ælʌgzændɜ": 3864,
      "ʌmoni": 3865,
      "pætɜn": 3866,
      "mɪnʌm": 3867,
      "mon": 3868,
      "moʃʌn": 3869,
      "klosɜ": 3870,
      "nots": 3871,
      "sʌpozd": 3872,
      "fen": 3873,
      "hAt": 3874,
      "sɜvɪŋ": 3875,
      "grEs": 3876,
      "ɜl": 3877,
      "ræd": 3878,
      "sɪs": 3879,
      "ɔts": 3880,
      "kʌmpozd": 3881,
      "ænʌmʌlz": 3882,
      "ɪkwɪpmʌnt": 3883,
      "ʌdɜ": 3884,
      "kɑnvɜs": 3885,
      "jud": 3886,
      "ʌntri": 3887,
      "frænsɪs": 3888,
      "werɪŋ": 3889,
      "kʌpæs": 3890,
      "stræt": 3891,
      "ɑpʌzɪʃʌn": 3892,
      "kɑmp": 3893,
      "ɑdo": 3894,
      "mæst": 3895,
      "rænd": 3896,
      "risʌntli": 3897,
      "||||": 3898,
      "kwɔrtɜ": 3899,
      "ɪkstensɪv": 3900,
      "sɪksθ": 3901,
      "sekʌndz": 3902,
      "izʌli": 3903,
      "Adentʌf": 3904,
      "ɪfektɪv": 3905,
      "ir": 3906,
      "sʌfɜ": 3907,
      "skɑr": 3908,
      "ves": 3909,
      "krad": 3910,
      "ɪnhæbʌt": 3911,
      "klAmʌt": 3912,
      "mɪnʌt": 3913,
      "bek": 3914,
      "heri": 3915,
      "dɪfAnd": 3916,
      "bɪlJʌn": 3917,
      "ʌhed": 3918,
      "wep": 3919,
      "kʌz": 3920,
      "sæd": 3921,
      "mantʌnz": 3922,
      "entɜtEn": 3923,
      "dɪvAdʌd": 3924,
      "gɪvz": 3925,
      "medʌl": 3926,
      "terz": 3927,
      "ɪmæjʌn": 3928,
      "prʌtekt": 3929,
      "ʌzʌt": 3930,
      "lɪtɜʌcɜ": 3931,
      "æktɪvʌti": 3932,
      "globʌl": 3933,
      "prɪd": 3934,
      "wɪlJ": 3935,
      "ɪmo": 3936,
      "sEfti": 3937,
      "der": 3938,
      "ʌnj": 3939,
      "krɔ": 3940,
      "kʌpʌlz": 3941,
      "Jelo": 3942,
      "enjʌnɪrɪŋ": 3943,
      "bɑtʌm": 3944,
      "ʃoldɜz": 3945,
      "nidz": 3946,
      "hedʌd": 3947,
      "rElrod": 3948,
      "fɪŋgɜ": 3949,
      "ɑto": 3950,
      "græbd": 3951,
      "ʌkʌt": 3952,
      "spEn": 3953,
      "bʊʃ": 3954,
      "bJʊro": 3955,
      "nɪn": 3956,
      "brʌz": 3957,
      "pɑlɪʃ": 3958,
      "rʌfJuzd": 3959,
      "bɑstʌn": 3960,
      "flɔrʌdʌ": 3961,
      "sɔftwer": 3962,
      "brɪk": 3963,
      "ɔltɜnʌtɪv": 3964,
      "ɪbʌt": 3965,
      "ʌplAd": 3966,
      "nɪs": 3967,
      "plEt": 3968,
      "flAɪŋ": 3969,
      "spekt": 3970,
      "pælʌs": 3971,
      "gɑtʌn": 3972,
      "mæsk": 3973,
      "wed": 3974,
      "Emi": 3975,
      "kʌntEn": 3976,
      "tend": 3977,
      "lɪr": 3978,
      "mɑrks": 3979,
      "kwescʌnz": 3980,
      "ɪnvestʌg": 3981,
      "lad": 3982,
      "kʌmbAnd": 3983,
      "æntɪj": 3984,
      "edi": 3985,
      "ɑmʌn": 3986,
      "θron": 3987,
      "wɜldz": 3988,
      "gʌm": 3989,
      "kʌnstrʌktʌd": 3990,
      "tiθ": 3991,
      "twAs": 3992,
      "serʌ": 3993,
      "pɔrcʌg": 3994,
      "kran": 3995,
      "ɪtɪd": 3996,
      "pɑlʌtɪʃʌn": 3997,
      "esɪv": 3998,
      "sɜandɪŋ": 3999,
      "Jʌŋgɜ": 4000,
      "kwɑlʌti": 4001,
      "cermʌn": 4002,
      "ɪksplo": 4003,
      "fɔrmʌl": 4004,
      "pɪt": 4005,
      "rinEmd": 4006,
      "stivʌn": 4007,
      "fEθ": 4008,
      "hɪp": 4009,
      "bɪkʌmz": 4010,
      "ba": 4011,
      "sɔrsʌz": 4012,
      "ɪstæn": 4013,
      "sandz": 4014,
      "Ani": 4015,
      "ʌmʌs": 4016,
      "twɪ": 4017,
      "olʌ": 4018,
      "rɪpʌblɪkʌn": 4019,
      "lɪŋk": 4020,
      "ɑdʌ": 4021,
      "rɪplEs": 4022,
      "kɑntʌn": 4023,
      "tæsk": 4024,
      "sʌlektʌd": 4025,
      "onʌnts": 4026,
      "hJuj": 4027,
      "ændru": 4028,
      "θazʌndz": 4029,
      "fɑks": 4030,
      "ɪskEp": 4031,
      "lejʌnd": 4032,
      "kɑnstʌtuʃʌn": 4033,
      "ɪlekʃʌnz": 4034,
      "telɪŋ": 4035,
      "wepʌnz": 4036,
      "gʌs": 4037,
      "sAlʌns": 4038,
      "um": 4039,
      "fɪftiz": 4040,
      "pensʌl": 4041,
      "kʌnsɪsts": 4042,
      "ʌnEbʌl": 4043,
      "mænɜ": 4044,
      "gɪf": 4045,
      "kæpcɜd": 4046,
      "sAʌntɪfɪk": 4047,
      "krɪtɪkʌl": 4048,
      "ælɪti": 4049,
      "nuzpEpɜ": 4050,
      "dɪstrʌbJuʃʌn": 4051,
      "pik": 4052,
      "estʌmEtʌd": 4053,
      "ikwʌl": 4054,
      "senʌt": 4055,
      "rʌʃʌ": 4056,
      "ʃɜt": 4057,
      "mænd": 4058,
      "sʌplA": 4059,
      "hiz": 4060,
      "tino": 4061,
      "kʌmpl": 4062,
      "ivnɪŋ": 4063,
      "fʌlɑs": 4064,
      "setʌlmʌnt": 4065,
      "ʌnælʌsʌs": 4066,
      "vɜʒʌnz": 4067,
      "mɑrʃʌl": 4068,
      "lek": 4069,
      "jʌŋk": 4070,
      "ʃrʌg": 4071,
      "ɔrgʌnAzd": 4072,
      "hJumʌnz": 4073,
      "sænt": 4074,
      "noɪŋ": 4075,
      "ʌlɔŋsAd": 4076,
      "cɑrt": 4077,
      "gɑl": 4078,
      "dɪklerd": 4079,
      "mɔrt": 4080,
      "entɪŋ": 4081,
      "dioz": 4082,
      "læm": 4083,
      "skɑtlʌnd": 4084,
      "mɪsɪz": 4085,
      "ɪlɪzʌbʌθ": 4086,
      "grEv": 4087,
      "mɑrkt": 4088,
      "rɪspɑn": 4089,
      "fʌni": 4090,
      "vɜd": 4091,
      "enkɜɪj": 4092,
      "kɔrpɜEʃʌn": 4093,
      "sents": 4094,
      "perʌl": 4095,
      "emɜ": 4096,
      "plænts": 4097,
      "wEn": 4098,
      "prɪnt": 4099,
      "krik": 4100,
      "gɑn": 4101,
      "hɪn": 4102,
      "hɪlz": 4103,
      "ovɜɔl": 4104,
      "ʃerd": 4105,
      "vAs": 4106,
      "kʌnsɜvʌtɪv": 4107,
      "hɔrn": 4108,
      "kɑfi": 4109,
      "fɔt": 4110,
      "dɔrz": 4111,
      "ɪndɪpendʌns": 4112,
      "ʌlaɪŋ": 4113,
      "ʌnO": 4114,
      "ɪstEt": 4115,
      "sits": 4116,
      "ʃEp": 4117,
      "pisʌz": 4118,
      "ærʌb": 4119,
      "rʌdust": 4120,
      "pʌblɪʃ": 4121,
      "jæksʌn": 4122,
      "ɪriʌ": 4123,
      "berid": 4124,
      "rijʌnz": 4125,
      "bæskʌt": 4126,
      "kɪlɪŋ": 4127,
      "lɪftʌd": 4128,
      "ʌzEʃʌnz": 4129,
      "brʊk": 4130,
      "piæn": 4131,
      "lidɜz": 4132,
      "rɑn": 4133,
      "ɪmpækt": 4134,
      "eksɜ": 4135,
      "fridʌm": 4136,
      "jɜzi": 4137,
      "ɪnsʌl": 4138,
      "ʌnlAk": 4139,
      "pɑsʌbli": 4140,
      "kʌnektʌd": 4141,
      "kwɑnt": 4142,
      "læn": 4143,
      "ʌmentʌl": 4144,
      "wɜi": 4145,
      "ɪmpɪriʌl": 4146,
      "kriEʃʌn": 4147,
      "prɑmʌnʌnt": 4148,
      "rɪr": 4149,
      "pʌzɪʃʌnz": 4150,
      "ædres": 4151,
      "ɪkʃʌn": 4152,
      "ænʌmʌl": 4153,
      "fɔrmJʌl": 4154,
      "rɪvild": 4155,
      "ʌtend": 4156,
      "grEtʌst": 4157,
      "frikwʌntli": 4158,
      "spic": 4159,
      "kwAʌt": 4160,
      "rɪzʌltɪŋ": 4161,
      "mʌθ": 4162,
      "ɪkɑnʌmi": 4163,
      "efɜts": 4164,
      "siʌ": 4165,
      "eti": 4166,
      "meksʌko": 4167,
      "temprʌ": 4168,
      "tʌnz": 4169,
      "temprʌcɜ": 4170,
      "sɑk": 4171,
      "ɑlvd": 4172,
      "bɜdz": 4173,
      "ʃEk": 4174,
      "--": 4175,
      "nEbɜhʊd": 4176,
      "tAd": 4177,
      "hɑm": 4178,
      "drɔn": 4179,
      "wil": 4180,
      "vɪktɔriʌ": 4181,
      "kæʃ": 4182,
      "wʌnd": 4183,
      "mʌmɔriʌl": 4184,
      "fɔlz": 4185,
      "gron": 4186,
      "ʃat": 4187,
      "ɑksfɜd": 4188,
      "ælf": 4189,
      "vJuz": 4190,
      "bɪniθ": 4191,
      "pɑlʌtɪks": 4192,
      "sizʌnz": 4193,
      "hasholdɜ": 4194,
      "mʊr": 4195,
      "Ejd": 4196,
      "rɪbJʌtʌd": 4197,
      "rɪg": 4198,
      "kOn": 4199,
      "bɑrk": 4200,
      "kɑmJʌn": 4201,
      "kɑntrʌvɜ": 4202,
      "jɑnsʌn": 4203,
      "bræn": 4204,
      "hɑrm": 4205,
      "ficɜɪŋ": 4206,
      "wɪlJʌmz": 4207,
      "lɪp": 4208,
      "bʊl": 4209,
      "vɜti": 4210,
      "fɔrcʌn": 4211,
      "rEsɪŋ": 4212,
      "drʌg": 4213,
      "sencɜiz": 4214,
      "pOntʌd": 4215,
      "kænɑt": 4216,
      "nɔrm": 4217,
      "sio": 4218,
      "kʌntempɜeri": 4219,
      "kerʌlAnʌ": 4220,
      "klʌbz": 4221,
      "mʌkæn": 4222,
      "ɪlɪmʌn": 4223,
      "θɪn": 4224,
      "ʌlAv": 4225,
      "pɑvɜti": 4226,
      "æktrʌs": 4227,
      "relʌtɪvli": 4228,
      "ʌtæ": 4229,
      "dest": 4230,
      "fræŋ": 4231,
      "skEl": 4232,
      "æktʌv": 4233,
      "stʌmʌk": 4234,
      "liʌ": 4235,
      "bar": 4236,
      "sekʃuʌl": 4237,
      "sʌprim": 4238,
      "zon": 4239,
      "ɜnd": 4240,
      "nero": 4241,
      "rɪtArd": 4242,
      "tæn": 4243,
      "cælʌnj": 4244,
      "kʌlæbɜ": 4245,
      "edʌtɜ": 4246,
      "æstr": 4247,
      "ɔrʌtiz": 4248,
      "brif": 4249,
      "kɑro": 4250,
      "klæsɪkʌl": 4251,
      "drɪŋk": 4252,
      "nAts": 4253,
      "jenɜEʃʌn": 4254,
      "ɪntɜpr": 4255,
      "kʌmJunʌtiz": 4256,
      "nɪkʌl": 4257,
      "ɑprʌ": 4258,
      "AdentʌfAd": 4259,
      "Ezi": 4260,
      "nukliɜ": 4261,
      "kɔrd": 4262,
      "epʌsodz": 4263,
      "wɔst": 4264,
      "mɪkst": 4265,
      "kɔlɪŋ": 4266,
      "ɪnvArʌnmʌnt": 4267,
      "nun": 4268,
      "mʌg": 4269,
      "grænt": 4270,
      "sæŋk": 4271,
      "dɪsplE": 4272,
      "ʌferz": 4273,
      "jEs": 4274,
      "ækʌdemɪk": 4275,
      "ɔrʌjʌn": 4276,
      "sʌfɜd": 4277,
      "pEm": 4278,
      "kʌnæl": 4279,
      "næʃʌn": 4280,
      "mAkr": 4281,
      "bAn": 4282,
      "blo": 4283,
      "ɑgz": 4284,
      "zʌn": 4285,
      "rɪpitɪd": 4286,
      "kloðz": 4287,
      "prɑmʌs": 4288,
      "θæts": 4289,
      "frik": 4290,
      "kɜekt": 4291,
      "eniwE": 4292,
      "enʌmi": 4293,
      "hedz": 4294,
      "θɔts": 4295,
      "fEt": 4296,
      "lɪŋg": 4297,
      "triti": 4298,
      "spel": 4299,
      "hɑli": 4300,
      "Junik": 4301,
      "||.": 4302,
      "fɔrd": 4303,
      "ælbɜt": 4304,
      "inz": 4305,
      "æps": 4306,
      "ɑpʌzʌt": 4307,
      "jæn": 4308,
      ",(": 4309,
      "jOnt": 4310,
      "niðɜ": 4311,
      "vihɪkʌl": 4312,
      "kipɪŋ": 4313,
      "homz": 4314,
      "neg": 4315,
      "kʌmper": 4316,
      "wɪmʌnz": 4317,
      "kʌnekʃʌn": 4318,
      "nɔrθwest": 4319,
      "dedʌkEtʌd": 4320,
      "hEt": 4321,
      "lio": 4322,
      "esE": 4323,
      "trEnz": 4324,
      "læntɪk": 4325,
      "kæc": 4326,
      "ræŋ": 4327,
      "dɪstɪŋg": 4328,
      "romæn": 4329,
      "prʌpoz": 4330,
      "tests": 4331,
      "ʌkʌmpʌn": 4332,
      "kʌntrɪbJu": 4333,
      "ner": 4334,
      "fandɜ": 4335,
      "pæsɪŋ": 4336,
      "fʌsɪlʌtiz": 4337,
      "fokʌst": 4338,
      "græs": 4339,
      "lEbɜ": 4340,
      "lEbʌl": 4341,
      "ændʌ": 4342,
      "ʌkʌn": 4343,
      "rɪspektɪvli": 4344,
      "ʌtlæntɪk": 4345,
      "sɜprAz": 4346,
      "sevʌnθ": 4347,
      "kɪst": 4348,
      "lidɜʃɪp": 4349,
      "rɪlɪjʌn": 4350,
      "luzɪŋ": 4351,
      "ʌdmɪnʌstr": 4352,
      "jel": 4353,
      "rɪzʌltɪd": 4354,
      "cEn": 4355,
      "ʌjɪt": 4356,
      "ɪntAɜli": 4357,
      "skɑtɪʃ": 4358,
      "ʌlaz": 4359,
      "fu": 4360,
      "ɪstɪks": 4361,
      "Eʃʌnʌl": 4362,
      "fʌmɪl": 4363,
      "solo": 4364,
      "biz": 4365,
      "kɑmʌdi": 4366,
      "kot": 4367,
      "entɜtEnmʌnt": 4368,
      "send": 4369,
      "græntʌd": 4370,
      "fæktɜ": 4371,
      "rɪspekt": 4372,
      "kel": 4373,
      "sʌvɪr": 4374,
      "lAkt": 4375,
      "ants": 4376,
      "fɔrmEʃʌn": 4377,
      "vɑlʌnt": 4378,
      "ʌdvæn": 4379,
      "enz": 4380,
      "ɑrc": 4381,
      "lEbar": 4382,
      "brʌʃ": 4383,
      "krAm": 4384,
      "notʌst": 4385,
      "ʌdvænst": 4386,
      "toni": 4387,
      "nɔrθist": 4388,
      "sɪdni": 4389,
      "dɪtɜmʌnd": 4390,
      "pEl": 4391,
      "kʌnst": 4392,
      "kEt": 4393,
      "ɪkspændʌd": 4394,
      "cozʌn": 4395,
      "drAvɜ": 4396,
      "mʌtɪri": 4397,
      "sɜk": 4398,
      "plænɪŋ": 4399,
      "sokɑro": 4400,
      "kʌpæsʌti": 4401,
      "ɔrθ": 4402,
      "lets": 4403,
      "pAlʌt": 4404,
      "kʌndʌktʌd": 4405,
      "dænJʌl": 4406,
      "rekʌm": 4407,
      "spAɜd": 4408,
      "klɑrk": 4409,
      "trʌk": 4410,
      "ʌpozd": 4411,
      "trAʌl": 4412,
      "onʌnt": 4413,
      "nʌmʌnt": 4414,
      "jæz": 4415,
      "ælʌks": 4416,
      "Ejʌnt": 4417,
      "riækʃʌn": 4418,
      "kʌnvenʃʌn": 4419,
      "fɜn": 4420,
      "pɜcʌst": 4421,
      "tAtʌld": 4422,
      "kɪdz": 4423,
      "pJu": 4424,
      "pensʌlvEn": 4425,
      "ektɜz": 4426,
      "tɜnz": 4427,
      "krɪsmʌs": 4428,
      "hʌndrʌdz": 4429,
      "klEmz": 4430,
      "ricɪŋ": 4431,
      "ɪksplEnd": 4432,
      "jizʌs": 4433,
      "holdz": 4434,
      "websAt": 4435,
      "welθ": 4436,
      "dri": 4437,
      "pɔrʃʌn": 4438,
      "dev": 4439,
      "stɜz": 4440,
      "mɔl": 4441,
      "prA": 4442,
      "kɔŋ": 4443,
      "klin": 4444,
      "stEd": 4445,
      "ini": 4446,
      "ɑʒ": 4447,
      "ɑnto": 4448,
      "viet": 4449,
      "cEmbɜ": 4450,
      "kɑlɜ": 4451,
      "nuli": 4452,
      "ɪtɜ": 4453,
      "brAʌn": 4454,
      "klɪrli": 4455,
      "lidz": 4456,
      "fɪgJɜz": 4457,
      "pidi": 4458,
      "ɑkJʌpAd": 4459,
      "midi": 4460,
      "skɔrd": 4461,
      "ʌtæks": 4462,
      "nOz": 4463,
      "sud": 4464,
      "jul": 4465,
      "stA": 4466,
      "fɪkʃʌn": 4467,
      "ʃed": 4468,
      "ɪgnEtɪd": 4469,
      "ɪmʌgr": 4470,
      "bækt": 4471,
      "flʌd": 4472,
      "hevʌli": 4473,
      "ʌpOnt": 4474,
      "ɑrθɜ": 4475,
      "tɜʌ": 4476,
      "Jɑ": 4477,
      "rimAnd": 4478,
      "dɪfit": 4479,
      "jʊr": 4480,
      "æŋgɜ": 4481,
      "ʌbʌlz": 4482,
      "ʌfrEd": 4483,
      "wɪlɪŋ": 4484,
      "rilAz": 4485,
      "ɪntɜnet": 4486,
      "vɪk": 4487,
      "kɔlz": 4488,
      "læp": 4489,
      "ɪgzæmpʌlz": 4490,
      "tɑk": 4491,
      "wɑnts": 4492,
      "æmʌtɜ": 4493,
      "sekʌnderi": 4494,
      "drɑmʌ": 4495,
      "sɪgnʌl": 4496,
      "vihɪkʌlz": 4497,
      "skɜ": 4498,
      "ɪsʌti": 4499,
      "oldʌst": 4500,
      "ʌbzɜv": 4501,
      "trʌm": 4502,
      "fɑloz": 4503,
      "hedkwɔrtɜz": 4504,
      "pensʌlvEnJʌ": 4505,
      "tɔt": 4506,
      "ɜdz": 4507,
      "feri": 4508,
      "fɪks": 4509,
      "smel": 4510,
      "ɔfɜz": 4511,
      "meθʌdz": 4512,
      "mæp": 4513,
      "rizʌnz": 4514,
      "ɪnspAɜd": 4515,
      "θim": 4516,
      "divi": 4517,
      "ræpt": 4518,
      "klA": 4519,
      "ɪkwɪvʌl": 4520,
      "ædvæntɪj": 4521,
      "kʌnfɜ": 4522,
      "ʌlu": 4523,
      "Jɜself": 4524,
      "selʌbr": 4525,
      "fʌŋkʃʌnz": 4526,
      "nil": 4527,
      "Junʌvɜs": 4528,
      "dEl": 4529,
      "Azɪz": 4530,
      "Junʌvɜsʌtiz": 4531,
      "strits": 4532,
      "hæl": 4533,
      "wɔrz": 4534,
      "mæθʌmæt": 4535,
      "rɪkɔrd": 4536,
      "kændʌdEt": 4537,
      "ræt": 4538,
      "ɪlʌ": 4539,
      "prɑjekts": 4540,
      "spɪn": 4541,
      "rʌʃ": 4542,
      "lɜnɪŋ": 4543,
      "sʌbsʌkwʌnt": 4544,
      "kʌnsi": 4545,
      "lɜnɪd": 4546,
      "ʌtemptʌd": 4547,
      "ʌjʌz": 4548,
      "risɔr": 4549,
      "bd": 4550,
      "sAmʌn": 4551,
      "nɑv": 4552,
      "sAlʌnt": 4553,
      "ɑrz": 4554,
      "æbi": 4555,
      "hɪspænɪk": 4556,
      "rio": 4557,
      "niʌ": 4558,
      "kʌnklud": 4559,
      "skwi": 4560,
      "kEmbrɪj": 4561,
      "spokʌn": 4562,
      "plætfɔrm": 4563,
      "kɑnvɜsEʃʌn": 4564,
      "ænsɜd": 4565,
      "tenʌnt": 4566,
      "krɔst": 4567,
      "ohA": 4568,
      "berli": 4569,
      "trænsfɜd": 4570,
      "jʌ": 4571,
      "bɪgɪnz": 4572,
      "ʃɑrp": 4573,
      "tʊrnʌmʌnt": 4574,
      "bæri": 4575,
      "ɪntɜnʌl": 4576,
      "okt": 4577,
      "frænsɪsko": 4578,
      "gets": 4579,
      "ʌpɑlʌtʌn": 4580,
      "ænʃʌn": 4581,
      "hʌd": 4582,
      "mAkro": 4583,
      "ɪntelʌjʌns": 4584,
      "ʌsAnd": 4585,
      "klɪf": 4586,
      "hɑrbɜ": 4587,
      "io": 4588,
      "sɪmbʌl": 4589,
      "enjO": 4590,
      "glæns": 4591,
      "risɔrsɪz": 4592,
      "smu": 4593,
      "rɪtɜnɪŋ": 4594,
      "kʌntɪnJuz": 4595,
      "rilEʃʌnz": 4596,
      "mʌtɪriʌlz": 4597,
      "dɪkʃʌn": 4598,
      "fJuʌl": 4599,
      "krɪtɪks": 4600,
      "plɑt": 4601,
      "ɑpt": 4602,
      "sterɪŋ": 4603,
      "ekst": 4604,
      "hɔŋ": 4605,
      "ɔrkʌst": 4606,
      "sɜprAzd": 4607,
      "vɪs": 4608,
      "rAn": 4609,
      "rɑd": 4610,
      "kɑmbʌn": 4611,
      "ʌðɜwAz": 4612,
      "bɪd": 4613,
      "ʌmiz": 4614,
      "jɑ": 4615,
      "fʌsɪlɪti": 4616,
      "zɜ": 4617,
      "estɜ": 4618,
      "ɪntrʌdʌkʃʌn": 4619,
      "mɑl": 4620,
      "frEz": 4621,
      "mɪsɪŋ": 4622,
      "lɪnd": 4623,
      "bækgrand": 4624,
      "fʌlɑsʌfi": 4625,
      "entrʌns": 4626,
      "miʌ": 4627,
      "vɜsʌs": 4628,
      "rumz": 4629,
      "vok": 4630,
      "hɪro": 4631,
      "desk": 4632,
      "Adiʌz": 4633,
      "ensi": 4634,
      "drAvɪŋ": 4635,
      "entli": 4636,
      "setɜʌ": 4637,
      "spɪrʌt": 4638,
      "strAk": 4639,
      "æbsʌl": 4640,
      "gɑdz": 4641,
      "prʌvAdɪŋ": 4642,
      "grɪn": 4643,
      "sʌlz": 4644,
      "\"),": 4645,
      "wEtʌd": 4646,
      "trænsfɜ": 4647,
      "wʌl": 4648,
      "egzɪstʌns": 4649,
      ",,": 4650,
      "kwinz": 4651,
      "wun": 4652,
      "rAtɜz": 4653,
      "prʌgr": 4654,
      "demʌnstr": 4655,
      "Junʌ": 4656,
      "stɪŋ": 4657,
      "sEn": 4658,
      "frænc": 4659,
      "ʌsɪstʌnt": 4660,
      "kɑnf": 4661,
      "hostɪd": 4662,
      "pʌ": 4663,
      "pu": 4664,
      "wɜs": 4665,
      "bɑl": 4666,
      "stɑrɪŋ": 4667,
      "kriEtɪŋ": 4668,
      "mobʌl": 4669,
      "Ejʌnsi": 4670,
      "hændʌl": 4671,
      "ʌperʌntli": 4672,
      "rɪlif": 4673,
      "pʊʃ": 4674,
      "klæsʌz": 4675,
      "ʌtækt": 4676,
      "tAtʌlz": 4677,
      "hɜz": 4678,
      "terɜ": 4679,
      "bæskʌtbɔl": 4680,
      "rem": 4681,
      "teknɪkʌl": 4682,
      "rɪmembɜd": 4683,
      "fænz": 4684,
      "serʌmoni": 4685,
      "rɪzɜv": 4686,
      "krɪk": 4687,
      "bɜlɪn": 4688,
      "ivʌl": 4689,
      "gɔr": 4690,
      "ʌfɪli": 4691,
      "jʌnsi": 4692,
      "sɪmʌl": 4693,
      "negʌtɪv": 4694,
      "ʌpɪn": 4695,
      "rolɪŋ": 4696,
      "kɑnsɜt": 4697,
      "kɑzɪŋ": 4698,
      "prEz": 4699,
      "kælkJʌl": 4700,
      "kæpɪt": 4701,
      "ʌfon": 4702,
      "brʌ": 4703,
      "sɜvz": 4704,
      "pæsʌnjɜ": 4705,
      "sɪtʌzʌnz": 4706,
      "tAni": 4707,
      "dɪnɜ": 4708,
      "juz": 4709,
      "dʌmest": 4710,
      "rep": 4711,
      "rɪpɔrts": 4712,
      "ʌbjekt": 4713,
      "kɑntrʌb": 4714,
      "ʌnnon": 4715,
      "sɑlʌd": 4716,
      "ɪksplɔr": 4717,
      "endʌnt": 4718,
      "brifli": 4719,
      "ɑnterio": 4720,
      "fAndɪŋ": 4721,
      "fElJɜ": 4722,
      "kEv": 4723,
      "prezʌdencʌl": 4724,
      "polʌnd": 4725,
      "cɪn": 4726,
      "ɑdiʌns": 4727,
      "drɪŋ": 4728,
      "ɪgzɪstɪŋ": 4729,
      "cEs": 4730,
      "dɜAvd": 4731,
      "stEtmʌnt": 4732,
      "ohAo": 4733,
      "sesɜ": 4734,
      "kald": 4735,
      "pop": 4736,
      "ʌltʌmʌtli": 4737,
      "eksʌl": 4738,
      "Edʌn": 4739,
      "brEkɪŋ": 4740,
      "ʌmerʌkʌnz": 4741,
      "enjʌnz": 4742,
      "pɜcʌs": 4743,
      "emʌ": 4744,
      "lɑtino": 4745,
      "mɜjd": 4746,
      "ɪlektrɑnɪk": 4747,
      "ɪkspænʃʌn": 4748,
      "cik": 4749,
      "ɪkstr": 4750,
      "reskJu": 4751,
      "dɪfɜʌns": 4752,
      "kredʌt": 4753,
      "ɑkʌ": 4754,
      "pʌblɪʃɪŋ": 4755,
      "trʌ": 4756,
      "rEtɪŋ": 4757,
      "ɪnʌs": 4758,
      "ʃædo": 4759,
      "gɑrdz": 4760,
      "sæntʌ": 4761,
      "ɑtɪk": 4762,
      "riælʌti": 4763,
      "Jʌs": 4764,
      "\").": 4765,
      "golz": 4766,
      "sidi": 4767,
      "næn": 4768,
      "eksʌb": 4769,
      "spikɪŋ": 4770,
      "klɜ": 4771,
      "hʌŋg": 4772,
      "as": 4773,
      "drE": 4774,
      "ɔft": 4775,
      "ʌŋkʌl": 4776,
      "lɑm": 4777,
      "drʌnz": 4778,
      "depJ": 4779,
      "rɪbel": 4780,
      "kɔrts": 4781,
      "ʌbj": 4782,
      "ʌdʌlt": 4783,
      "pɪst": 4784,
      "ʌci": 4785,
      "progræmɪŋ": 4786,
      "ʌnsʌn": 4787,
      "ʌtempts": 4788,
      "ver": 4789,
      "ræŋkt": 4790,
      "Adentʌti": 4791,
      "cɜcʌz": 4792,
      "sʌksidʌd": 4793,
      "herʌtʌj": 4794,
      "dezɪgnEtɪd": 4795,
      "sɪŋgʌlz": 4796,
      "lon": 4797,
      "kænsɜ": 4798,
      "skɑlɜ": 4799,
      "tɜɑnto": 4800,
      "rʊrʌl": 4801,
      "vɪzʌtʌd": 4802,
      "ðʌm": 4803,
      "ʃild": 4804,
      "gæm": 4805,
      "sɜvE": 4806,
      "ʌtɪŋ": 4807,
      "kʌntEnd": 4808,
      "nɑm": 4809,
      "fɪkst": 4810,
      "rɪks": 4811,
      "ʌsAzd": 4812,
      "ɪksplEn": 4813,
      "kɑnflɪkt": 4814,
      "blæŋk": 4815,
      "ʃʌv": 4816,
      "ækJɜ": 4817,
      "Aɪŋ": 4818,
      "ɪriʌn": 4819,
      "lɑkt": 4820,
      "ʌlAʌns": 4821,
      "pred": 4822,
      "nʌp": 4823,
      "prɪnses": 4824,
      "wepʌn": 4825,
      "sɔt": 4826,
      "mæsʌc": 4827,
      "metrʌpɑlʌtʌn": 4828,
      "kæpcɜ": 4829,
      "ʌpɑrtmʌnt": 4830,
      "ʌbændʌnd": 4831,
      "entri": 4832,
      "vælJuz": 4833,
      "kænz": 4834,
      "vel": 4835,
      "tElɜ": 4836,
      "ɪnfluʌnst": 4837,
      "vɜi": 4838,
      "prE": 4839,
      "gæŋ": 4840,
      "ʌfAɪŋ": 4841,
      "nɑnfʌm": 4842,
      "stʌk": 4843,
      "fɑlɪŋ": 4844,
      "reprʌzentʌtɪvz": 4845,
      "vots": 4846,
      "rejʌmʌnt": 4847,
      "bɑnd": 4848,
      "emfʌs": 4849,
      "ʌndɜstændɪŋ": 4850,
      "fʌmɪlJɜ": 4851,
      "spE": 4852,
      "θs": 4853,
      "ticɜ": 4854,
      "pɜmʌnʌnt": 4855,
      "rɪmɑrk": 4856,
      "kaldʌnt": 4857,
      "kɑnstʌnt": 4858,
      "ɪksklu": 4859,
      "ɪzriʌl": 4860,
      "mɜiʌ": 4861,
      "ɪnfʌntri": 4862,
      "jentʌl": 4863,
      "dɑnʌld": 4864,
      "dɪzAɜ": 4865,
      "klosli": 4866,
      "usʌts": 4867,
      "(),": 4868,
      "mæsʌcusʌts": 4869,
      "kɑmɪk": 4870,
      "krAst": 4871,
      "gEn": 4872,
      "pɪkcɜz": 4873,
      "hem": 4874,
      "nɑnfʌmʌliz": 4875,
      "lɔnc": 4876,
      "fɪlʌdel": 4877,
      "fid": 4878,
      "dAnʌsti": 4879,
      "lændɪŋ": 4880,
      "ɑrgJud": 4881,
      "kɑrt": 4882,
      "ɜtEʃʌn": 4883,
      "jʌŋkʃʌn": 4884,
      "ʌjʌst": 4885,
      "ʌtɔriz": 4886,
      "prʌdʌk": 4887,
      "kɑnʃʌs": 4888,
      "telz": 4889,
      "smuð": 4890,
      "ɪndɪk": 4891,
      "spʌsɪfɪkli": 4892,
      "flɪk": 4893,
      "pʊlɪŋ": 4894,
      "',": 4895,
      "kɑntent": 4896,
      "dEnjɜʌs": 4897,
      "dɑrknʌs": 4898,
      "ɔltɜ": 4899,
      "rispɑnsʌb": 4900,
      "tæŋk": 4901,
      "emplOd": 4902,
      "hɑki": 4903,
      "stæns": 4904,
      "ɑrkʌtekcɜ": 4905,
      "dɪstɪŋk": 4906,
      "jɪkʌl": 4907,
      "bAt": 4908,
      "cɑrjd": 4909,
      "fEst": 4910,
      "ɪʃʌs": 4911,
      "Ejʌz": 4912,
      "jɔrjʌ": 4913,
      "dekEdz": 4914,
      "ʃʌp": 4915,
      "medʌsʌn": 4916,
      "rAf": 4917,
      "bɪsAdz": 4918,
      "dEts": 4919,
      "krEzi": 4920,
      "rɪzɪstʌns": 4921,
      "ʌfɪʃʌlz": 4922,
      "ækcʌwʌl": 4923,
      "rʌfɜz": 4924,
      "kEpʌbʌl": 4925,
      "kʌnfɜmd": 4926,
      "hʌntɜ": 4927,
      "sAʌnsʌz": 4928,
      "ɜE": 4929,
      "tæ": 4930,
      "ɑbz": 4931,
      "priperd": 4932,
      "ʌgʌn": 4933,
      "ekspʌdɪʃʌn": 4934,
      "lɪtɜeri": 4935,
      "jet": 4936,
      "ʃoɪŋ": 4937,
      "sʌpɔrtɪŋ": 4938,
      "Jɜi": 4939,
      "ɑbjekts": 4940,
      "rʌp": 4941,
      "notʌs": 4942,
      "ʌpropri": 4943,
      "rʌgɑrdʌd": 4944,
      "riɪn": 4945,
      "ʌpruvd": 4946,
      "sʌndE": 4947,
      "kʌnfedɜ": 4948,
      "wʊdz": 4949,
      "bræd": 4950,
      "risɜ": 4951,
      "ɪntɪriɜ": 4952,
      "vokʌl": 4953,
      "bEt": 4954,
      "viʌ": 4955,
      "nʊr": 4956,
      "lAsʌns": 4957,
      "ɔrʌnj": 4958,
      "Avɪŋ": 4959,
      "kæriɪŋ": 4960,
      "mæksʌmʌm": 4961,
      "mɑk": 4962,
      "ʌlek": 4963,
      "lutenʌnt": 4964,
      "stæcu": 4965,
      "ʃrʌgd": 4966,
      "dos": 4967,
      "wʌndɜd": 4968,
      "dɪstɪŋkt": 4969,
      "dɪpɑr": 4970,
      "æŋgri": 4971,
      "ekstrʌ": 4972,
      "ɪnʌti": 4973,
      "kʌntEnɪŋ": 4974,
      "ʌndɜstʊd": 4975,
      "kʌlɜz": 4976,
      "bæŋks": 4977,
      "ɪmʌjʌz": 4978,
      "kɪt": 4979,
      "wɪr": 4980,
      "det": 4981,
      "seg": 4982,
      "tɑr": 4983,
      "kʌntrold": 4984,
      "bet": 4985,
      "ɔrgʌnʌzEʃʌnz": 4986,
      "dɪskrɪp": 4987,
      "ɪntrʌstʌd": 4988,
      "ɑkr": 4989,
      "ɪpɪŋ": 4990,
      "tɑl": 4991,
      "fæktɜi": 4992,
      "obi": 4993,
      "sɜkʌm": 4994,
      "stændɜdz": 4995,
      "hez": 4996,
      "prʌmotʌd": 4997,
      "saθwest": 4998,
      "enʌ": 4999,
      "ɪskE": 5000,
      "kʌvɜz": 5001,
      "entAt": 5002,
      "ʌlEʃʌn": 5003,
      "ɪnvArʌnmentʌl": 5004,
      "slɪd": 5005,
      "ɪmpɑ": 5006,
      "fɪlʌdelfiʌ": 5007,
      "piæno": 5008,
      "ʌbzɜvd": 5009,
      "wɪlsʌn": 5010,
      "æplʌkEʃʌn": 5011,
      "rAzɪŋ": 5012,
      "frikwʌn": 5013,
      "ɜvEʃʌn": 5014,
      "pɜfɔrmɪŋ": 5015,
      "ʃʊ": 5016,
      "fɑðɜz": 5017,
      "fɔrmɪŋ": 5018,
      "kiz": 5019,
      "ɑpɜtunʌti": 5020,
      "koɔrdʌn": 5021,
      "blAnd": 5022,
      "sætɜ": 5023,
      "mɪni": 5024,
      "moz": 5025,
      "oniʌ": 5026,
      "kɑrdz": 5027,
      "kæpɪtʌ": 5028,
      "tAɜ": 5029,
      "nɔrmʌli": 5030,
      "pleʒɜ": 5031,
      "ænse": 5032,
      "stim": 5033,
      "pɜsʌnz": 5034,
      "slæm": 5035,
      "plænʌt": 5036,
      "ʌkɜz": 5037,
      "æktɜz": 5038,
      "wɪz": 5039,
      "dɪtElz": 5040,
      "prɑpɜtiz": 5041,
      "wɪŋz": 5042,
      "ædmɜ": 5043,
      "dɪstrɪkts": 5044,
      "græjʌwʌt": 5045,
      "cɪz": 5046,
      "kænsʌl": 5047,
      "klE": 5048,
      "kwest": 5049,
      "grandz": 5050,
      "wɜldwAd": 5051,
      "ɪjɪz": 5052,
      "mJunɪsʌpʌl": 5053,
      "wɑl": 5054,
      "ɑrgJʌm": 5055,
      "la": 5056,
      "ɪcu": 5057,
      "ɪrɑn": 5058,
      "mɪnʌstri": 5059,
      "pɑkʌt": 5060,
      "enimɔr": 5061,
      "sʌmwer": 5062,
      "θɜtsiz": 5063,
      "sʌst": 5064,
      "Eld": 5065,
      "hoz": 5066,
      "kɑmbæt": 5067,
      "prist": 5068,
      "glæd": 5069,
      "æskɪŋ": 5070,
      "sinz": 5071,
      "rɪkwAr": 5072,
      "pel": 5073,
      "tʌnʌl": 5074,
      "θʌn": 5075,
      "ʌkE": 5076,
      "kʌmɪʃʌnd": 5077,
      "kɑpiz": 5078,
      "ʌθɔrʌtiz": 5079,
      "kʌd": 5080,
      "ɪnvEʒʌn": 5081,
      "fJuʒʌn": 5082,
      "kʌnsɜnd": 5083,
      "ʌlej": 5084,
      "trɪk": 5085,
      "jEn": 5086,
      "ændʌl": 5087,
      "ɑpɜEt": 5088,
      "hɔk": 5089,
      "ʌnles": 5090,
      "dantan": 5091,
      "brɪŋɪŋ": 5092,
      "rekʌgnAz": 5093,
      "ʌcivd": 5094,
      "Etinθ": 5095,
      "ɔk": 5096,
      "'.": 5097,
      "kɑmɪks": 5098,
      "ðʌles": 5099,
      "ʌnsiz": 5100,
      "pɑt": 5101,
      "tʌv": 5102,
      "tʌmɑro": 5103,
      "fɪts": 5104,
      "pAn": 5105,
      "stuɜt": 5106,
      "kantiz": 5107,
      "stændz": 5108,
      "Etθ": 5109,
      "otɪv": 5110,
      "ʌbɪlʌtiz": 5111,
      "ruf": 5112,
      "ɔrkʌstrʌ": 5113,
      "rejɪstɜ": 5114,
      "krɪtɪs": 5115,
      "sentɜz": 5116,
      "ʌθi": 5117,
      "tot": 5118,
      "prʌs": 5119,
      "tɪpʌkʌl": 5120,
      "kɜnʌl": 5121,
      "wɪnɜ": 5122,
      "sid": 5123,
      "sɪnθ": 5124,
      "kɪm": 5125,
      "prit": 5126,
      "hopt": 5127,
      "sandʌd": 5128,
      "stonz": 5129,
      "ʌki": 5130,
      "liʌnz": 5131,
      "bro": 5132,
      "wʊdʌn": 5133,
      "gz": 5134,
      "strʌkcɜz": 5135,
      "mæsɪv": 5136,
      "ats": 5137,
      "skɑlɜz": 5138,
      "duti": 5139,
      "ʌdmɪnʌstrEtɪv": 5140,
      "bʌz": 5141,
      "Jɜd": 5142,
      "jinz": 5143,
      "ɔrʌ": 5144,
      "sɑn": 5145,
      "kɑzʌz": 5146,
      "ɪkwɪvʌlʌnt": 5147,
      "mod": 5148,
      "stɔrz": 5149,
      "rɪvɜz": 5150,
      "ɪlʌstr": 5151,
      "kɑnd": 5152,
      "ɪkspɪriʌnst": 5153,
      "ɔrbʌt": 5154,
      "selɜ": 5155,
      "pɪ": 5156,
      "kemʌkʌl": 5157,
      "Ezɪŋ": 5158,
      "ʌjd": 5159,
      "Jutʌd": 5160,
      "pɔrts": 5161,
      "trævʌld": 5162,
      "neðɜ": 5163,
      "mæcʌz": 5164,
      "semʌteri": 5165,
      "kɑrbʌn": 5166,
      "læt": 5167,
      "kɑnsʌk": 5168,
      "hɪstɔriʌn": 5169,
      "ɪlʌnO": 5170,
      "trænzlEʃʌn": 5171,
      "ʌsɜ": 5172,
      "poʌtri": 5173,
      "ɜliʌst": 5174,
      "læŋ": 5175,
      "Edʌd": 5176,
      "mɪdi": 5177,
      "ædvɜt": 5178,
      "kɑmbʌnEʃʌn": 5179,
      "ticɪŋ": 5180,
      "pʌblɪkEʃʌn": 5181,
      "mAgr": 5182,
      "ʌsumd": 5183,
      "æsʌd": 5184,
      "mɪʃɪgʌn": 5185,
      "ɔrz": 5186,
      "rʌgɑrdɪŋ": 5187,
      "entAtʌld": 5188,
      "ændɜsʌn": 5189,
      "kJʊr": 5190,
      "protin": 5191,
      "krɪmʌnʌl": 5192,
      "æsp": 5193,
      "gʌvɜmʌnts": 5194,
      "dʌmestɪk": 5195,
      "rEtʌd": 5196,
      "mJut": 5197,
      "trɑp": 5198,
      "ʌvʌn": 5199,
      "tʌct": 5200,
      "kJʊri": 5201,
      "lus": 5202,
      "lʌg": 5203,
      "semi": 5204,
      "Jɑrdz": 5205,
      "oniʌl": 5206,
      "prɪzentɪŋ": 5207,
      "æsks": 5208,
      "rikwAɜ": 5209,
      "ʌcɜz": 5210,
      "dɑlɜ": 5211,
      "kʌnstɪcu": 5212,
      "menʃʌn": 5213,
      "krɪtʌsAzd": 5214,
      "bɑrt": 5215,
      "ɪkstrimli": 5216,
      "beθ": 5217,
      "fAɜd": 5218,
      "kʌnvɜtɪd": 5219,
      "fAr": 5220,
      "stEbʌl": 5221,
      "studioz": 5222,
      "pɜfɔrmʌnsʌz": 5223,
      "jEsʌn": 5224,
      "kɑntræst": 5225,
      "æplʌkEʃʌnz": 5226,
      "lɪz": 5227,
      "pAʌn": 5228,
      "drɔɪŋ": 5229,
      "rEts": 5230,
      "-''``": 5231,
      "wɔtɜz": 5232,
      "kɑmJʌnʌst": 5233,
      "fredrɪk": 5234,
      "trænzlEtʌd": 5235,
      "pEs": 5236,
      "fa": 5237,
      "dimʌn": 5238,
      "sil": 5239,
      "gɪr": 5240,
      "ɪtɪv": 5241,
      "sæ": 5242,
      "enʃʊr": 5243,
      "væk": 5244,
      "ɪksprest": 5245,
      "fotʌgræf": 5246,
      "swidɪʃ": 5247,
      "rʌfɜ": 5248,
      "krɔsɪŋ": 5249,
      "merʌl": 5250,
      "jef": 5251,
      "nɑl": 5252,
      "nEt": 5253,
      "lɔrʌns": 5254,
      "sʌmha": 5255,
      "lʌd": 5256,
      "ɪnfr": 5257,
      "greg": 5258,
      "dEm": 5259,
      "enʃʌli": 5260,
      "ɪlu": 5261,
      "is": 5262,
      "skwɑdrʌn": 5263,
      "hirɪŋ": 5264,
      "tinʌ": 5265,
      "elʌn": 5266,
      "rɑbɜ": 5267,
      "ʌkʌlcɜʌl": 5268,
      "ɪnvɑlv": 5269,
      "rʌdus": 5270,
      "drægʌn": 5271,
      "rAʌn": 5272,
      "ælkʌ": 5273,
      "prɪv": 5274,
      "strɪŋ": 5275,
      "ɪmpɑsʌbʌl": 5276,
      "kʌmfɜtʌbʌl": 5277,
      "vAʌlʌns": 5278,
      "two": 5279,
      "ʌtæct": 5280,
      "ɪnstɪtuʃʌnz": 5281,
      "sipidi": 5282,
      "skru": 5283,
      "pæd": 5284,
      "ɔrʃʌn": 5285,
      "pɑn": 5286,
      "hɑp": 5287,
      "ʌbi": 5288,
      "eldɜ": 5289,
      "plEnz": 5290,
      "bælʌns": 5291,
      "prʌj": 5292,
      "wʌd": 5293,
      "enʃʌnz": 5294,
      "sɜtʌnli": 5295,
      "kænʌn": 5296,
      "læb": 5297,
      "mEntEnd": 5298,
      "kʌʃʌn": 5299,
      "preg": 5300,
      "ruld": 5301,
      "kwAʌtli": 5302,
      "notʌbli": 5303,
      "ænʌvɜ": 5304,
      "tɪs": 5305,
      "pʌtɪŋ": 5306,
      "ælj": 5307,
      "otʌd": 5308,
      "kʌnsu": 5309,
      "dʌglʌs": 5310,
      "kæbʌnʌt": 5311,
      "ʌluʃʌn": 5312,
      "?``": 5313,
      "hʌg": 5314,
      "pɜsi": 5315,
      "wɜid": 5316,
      "ɪdz": 5317,
      "stupʌd": 5318,
      "wɜst": 5319,
      "JʌtEʃʌn": 5320,
      "dekɜ": 5321,
      "kʌmpet": 5322,
      "enti": 5323,
      "rɑks": 5324,
      "ɪndid": 5325,
      "hɪdʌn": 5326,
      "fɔrmæt": 5327,
      "bedrum": 5328,
      "kɑmʌnt": 5329,
      "wikli": 5330,
      "dont": 5331,
      "pɪŋk": 5332,
      "JʌlEʃʌn": 5333,
      "ʌbtEnd": 5334,
      "æmɪk": 5335,
      "hæt": 5336,
      "frænsʌs": 5337,
      "eksk": 5338,
      "æθlet": 5339,
      "jendɜ": 5340,
      "dʌtɜ": 5341,
      "kʌloniʌl": 5342,
      "ɪnsʌdʌnt": 5343,
      "dEvʌs": 5344,
      "tækt": 5345,
      "lud": 5346,
      "mEntEn": 5347,
      "mɪθ": 5348,
      "perʌlel": 5349,
      "ʌdmɪtʌd": 5350,
      "krAsʌs": 5351,
      "ʌlʌs": 5352,
      "fæʃʌn": 5353,
      "Junʌvɜsʌl": 5354,
      "ʃut": 5355,
      "kev": 5356,
      "sɔl": 5357,
      "tub": 5358,
      "mɪdivʌl": 5359,
      "kɑlʌm": 5360,
      "nɜz": 5361,
      "flaɜ": 5362,
      "bred": 5363,
      "læbr": 5364,
      "ʃɪft": 5365,
      "vokʌlz": 5366,
      "pɑrks": 5367,
      "welkʌm": 5368,
      "keri": 5369,
      "hændʌd": 5370,
      "domEn": 5371,
      "jAʌnt": 5372,
      "hɪts": 5373,
      "selʌb": 5374,
      "ɪksklusɪv": 5375,
      "sikwʌns": 5376,
      "dɪpendɪŋ": 5377,
      "sɪcuEtɪd": 5378,
      "mekʌn": 5379,
      "fɔrmJʌlʌ": 5380,
      "nɑmʌnEtʌd": 5381,
      "kræk": 5382,
      "ænʌvɜsɜi": 5383,
      "welz": 5384,
      "trænspɜtEʃʌn": 5385,
      "skrɪpt": 5386,
      "olɪmpɪk": 5387,
      ")\"": 5388,
      "ɪmpɔrtʌns": 5389,
      "kio": 5390,
      "dɪklAn": 5391,
      "encɜ": 5392,
      "drest": 5393,
      "trEs": 5394,
      "fin": 5395,
      "dɑkJʌmentɜi": 5396,
      "ɪnsp": 5397,
      "prɑgr": 5398,
      "brA": 5399,
      "sʌpɔr": 5400,
      "θiɜ": 5401,
      "sʌpoz": 5402,
      "pEtri": 5403,
      "sætʌl": 5404,
      "ʌmentri": 5405,
      "sætʌs": 5406,
      "jɜni": 5407,
      "dæ": 5408,
      "kon": 5409,
      "sɔlt": 5410,
      "ʌpɪrʌnsʌz": 5411,
      "drov": 5412,
      "ɪnstʌns": 5413,
      "Enjʌl": 5414,
      "jɔ": 5415,
      "sɔftli": 5416,
      "æmɜ": 5417,
      "drʌl": 5418,
      "æsʌn": 5419,
      "ʌses": 5420,
      "dʌst": 5421,
      "rivJuz": 5422,
      "fæstɜ": 5423,
      "hʊk": 5424,
      "dʌp": 5425,
      "jentli": 5426,
      "kʌθi": 5427,
      "rʌfɔrm": 5428,
      "bɜnd": 5429,
      "ɪmɜjʌnsi": 5430,
      "nʌgo": 5431,
      "lɪvɜ": 5432,
      "ʌtA": 5433,
      "okl": 5434,
      "bra": 5435,
      "cɑrli": 5436,
      "Juʃʌnz": 5437,
      "kʌmJunʌkEʃʌn": 5438,
      "mɪrɜ": 5439,
      "æftɜnun": 5440,
      "ɜestʌd": 5441,
      "ec": 5442,
      "ʌdɑks": 5443,
      "Aʌtiz": 5444,
      "æksʌdʌnt": 5445,
      "ɪmpruvd": 5446,
      "jO": 5447,
      "elʌmʌnt": 5448,
      "dɪvelʌpɪŋ": 5449,
      "ɪnfl": 5450,
      "ʌlɪʃʌn": 5451,
      "romEn": 5452,
      "sɜandʌd": 5453,
      "Esʌnt": 5454,
      "rɪzem": 5455,
      "luk": 5456,
      "rz": 5457,
      "pæsʌnjɜz": 5458,
      "tɜk": 5459,
      "ɪnvestʌgEʃʌn": 5460,
      "ijʌp": 5461,
      "stro": 5462,
      "ɔfʌsʌz": 5463,
      "rʌt": 5464,
      "kɔriʌ": 5465,
      "hʌs": 5466,
      "hɔrsʌz": 5467,
      "ʌfektʌd": 5468,
      "riplEs": 5469,
      "neðɜlʌndz": 5470,
      "rAvʌl": 5471,
      "klɑk": 5472,
      "pEʃʌnts": 5473,
      "ɪgɜ": 5474,
      "Juzɜz": 5475,
      "pEjʌz": 5476,
      "votʌd": 5477,
      "jɑni": 5478,
      "ægrʌkʌlcɜʌl": 5479,
      "Jukr": 5480,
      "ɔrdʌneri": 5481,
      "nAnθ": 5482,
      "lɪli": 5483,
      "mɪlɜ": 5484,
      "fɜevɜ": 5485,
      "olʌn": 5486,
      "kEj": 5487,
      "ʌtri": 5488,
      "nʌgoʃi": 5489,
      "gʊdz": 5490,
      "eksɜsAz": 5491,
      "hɑlʌd": 5492,
      "pækɪstæn": 5493,
      "tekniks": 5494,
      "swidʌn": 5495,
      "reprʌzentʌtɪv": 5496,
      "sto": 5497,
      "bɜnɪŋ": 5498,
      "wEd": 5499,
      "ɪkstenʃʌn": 5500,
      "ætɪkli": 5501,
      "tenθ": 5502,
      "stɑrts": 5503,
      "sʌmwʌt": 5504,
      "ʌkEʒʌnʌli": 5505,
      "belt": 5506,
      "kʌmJunʌkEʃʌnz": 5507,
      "enE": 5508,
      "onɜz": 5509,
      "fAtɜ": 5510,
      "sekʃʌnz": 5511,
      "meg": 5512,
      "bɪlif": 5513,
      "bAo": 5514,
      "lokEʃʌnz": 5515,
      "ɪlektɜ": 5516,
      "ʌndɜgrand": 5517,
      "ʌdæp": 5518,
      "cEnjɪŋ": 5519,
      "pregn": 5520,
      "kʌvɜɪŋ": 5521,
      "brʌzɪl": 5522,
      "sɜkʌt": 5523,
      "ɪjɪŋ": 5524,
      "eθnɪk": 5525,
      "bʌst": 5526,
      "gæsp": 5527,
      "hAɜd": 5528,
      "rʌfli": 5529,
      "kæmɜʌ": 5530,
      "spend": 5531,
      "gli": 5532,
      "ces": 5533,
      "twentiz": 5534,
      "zo": 5535,
      "dEtɪŋ": 5536,
      "rɪzAdɪŋ": 5537,
      "kʌmpozɜ": 5538,
      "prʌdusɪŋ": 5539,
      "stɑrd": 5540,
      "ʌbzɔr": 5541,
      "sepɜEtʌd": 5542,
      "rɑjɜ": 5543,
      "prʌvɪn": 5544,
      "ɑlɪʃt": 5545,
      "pet": 5546,
      "%.": 5547,
      "ɪvʌn": 5548,
      "fɜget": 5549,
      "nAf": 5550,
      "prɔ": 5551,
      "tEst": 5552,
      "sɪŋɪŋ": 5553,
      "kerfʌli": 5554,
      "bɪzi": 5555,
      "hɑliwʊd": 5556,
      "mæstɜz": 5557,
      "dɪgriz": 5558,
      "wɪtnʌs": 5559,
      "dAm": 5560,
      "ʌkEt": 5561,
      "vej": 5562,
      "ɪjd": 5563,
      "ɑsʌti": 5564,
      "ɪnjɜ": 5565,
      "ɑdio": 5566,
      "strɪp": 5567,
      "sʌluʃʌn": 5568,
      "bærʌn": 5569,
      "mek": 5570,
      "ekʌnɑm": 5571,
      "sɜvAvd": 5572,
      "skʌlp": 5573,
      "bɔrdz": 5574,
      "\"-": 5575,
      "braz": 5576,
      "depJʌti": 5577,
      "brʌg": 5578,
      "bʌm": 5579,
      "kʌlektʌd": 5580,
      "lokʌm": 5581,
      "kɔriʌn": 5582,
      "lɪŋkʌn": 5583,
      "tol": 5584,
      "leŋ": 5585,
      "ʒi": 5586,
      "tæg": 5587,
      "hopɪŋ": 5588,
      "kʌntrɪbJutɪd": 5589,
      "ijʌpt": 5590,
      "tɜmʌnʌl": 5591,
      "ʌpOntmʌnt": 5592,
      "rEj": 5593,
      "kætʌgɔri": 5594,
      "lɪmʌt": 5595,
      "lɪrɪks": 5596,
      "lejʌslEt": 5597,
      "gælɜi": 5598,
      "rɪlA": 5599,
      "ʌndz": 5600,
      "cɪldrʌnz": 5601,
      "ʃɪftʌd": 5602,
      "grʌm": 5603,
      "dɪskʌvɜi": 5604,
      "ɪnhæbʌtʌnts": 5605,
      "smok": 5606,
      "ʒɑn": 5607,
      "haɜd": 5608,
      "ɪstæblɪʃmʌnt": 5609,
      "wEvz": 5610,
      "enjʌnɪr": 5611,
      "ælɪtiz": 5612,
      "kʌnfJuzd": 5613,
      "sektɜ": 5614,
      "emi": 5615,
      "dɪlɪvɜd": 5616,
      "spɑnsɜ": 5617,
      "ɑpɜEts": 5618,
      "pæsʌz": 5619,
      "skɪlz": 5620,
      "fandɪŋ": 5621,
      "senʌtɜ": 5622,
      "rʌsivɪŋ": 5623,
      "fEsʌz": 5624,
      "ðerz": 5625,
      "helʌn": 5626,
      "hʌb": 5627,
      "oli": 5628,
      "ɪkspænd": 5629,
      "Asʌl": 5630,
      "jɪz": 5631,
      "kʌnsɪstɪŋ": 5632,
      "enEbʌl": 5633,
      "sʌksesfʌli": 5634,
      "ʃutɪŋ": 5635,
      "muvz": 5636,
      "prɑfʌt": 5637,
      "wɔltɜ": 5638,
      "teksts": 5639,
      "fɪst": 5640,
      "rejɪstɜd": 5641,
      "kɑrn": 5642,
      "strEn": 5643,
      "dividi": 5644,
      "dræft": 5645,
      "supɪri": 5646,
      "kʌnsɪstʌd": 5647,
      "krit": 5648,
      "tul": 5649,
      "mɪc": 5650,
      "klozɪŋ": 5651,
      "sAnz": 5652,
      "dɪvɔr": 5653,
      "fæktɜz": 5654,
      "ʃri": 5655,
      "erɪŋ": 5656,
      "tAɜd": 5657,
      "vɪlʌjʌz": 5658,
      "hɪbʌt": 5659,
      "bent": 5660,
      "pɔrcʌgiz": 5661,
      "mɪʃʌnz": 5662,
      "pɪc": 5663,
      "ɪkʌlcɜ": 5664,
      "pAr": 5665,
      "bæst": 5666,
      "krɪkʌt": 5667,
      "næv": 5668,
      "muvmʌnts": 5669,
      "blæst": 5670,
      "ɑnʌmʌs": 5671,
      "mɪsʌl": 5672,
      "fɜz": 5673,
      "kra": 5674,
      "wedɪŋ": 5675,
      "dɪskrAbz": 5676,
      "mɪdnɪn": 5677,
      "dɪfend": 5678,
      "rekʌgnɪʃʌn": 5679,
      "lændsk": 5680,
      "mæm": 5681,
      "ɪntens": 5682,
      "restɜɑnt": 5683,
      "ligz": 5684,
      "defʌnɪʃʌn": 5685,
      "dɪsʌp": 5686,
      "ʌdʌl": 5687,
      "kɔrʌspɑn": 5688,
      "cʌ": 5689,
      "pɔrtr": 5690,
      "bʌjɪt": 5691,
      "fʌst": 5692,
      "mɑt": 5693,
      "fɪʃɪŋ": 5694,
      "ɪkwE": 5695,
      "dɪsʌpɪrd": 5696,
      "ʌpri": 5697,
      "mægnet": 5698,
      "nɑvʌlz": 5699,
      "skrA": 5700,
      "rɪzAnd": 5701,
      "?'": 5702,
      "momʌnts": 5703,
      "selɪŋ": 5704,
      "kʌf": 5705,
      "ʌpɪnJʌn": 5706,
      "fɔrmʌli": 5707,
      "pɑli": 5708,
      "ɑpʃʌn": 5709,
      "dɪzAnz": 5710,
      "ʌtɪd": 5711,
      "fɑlʌn": 5712,
      "vɜsʌz": 5713,
      "brɔdkæstɪŋ": 5714,
      "mʌzlʌm": 5715,
      "spɪrɪc": 5716,
      "kʌθidrʌl": 5717,
      "pɜpʌsʌz": 5718,
      "ʌjEsʌnt": 5719,
      "emplOiz": 5720,
      "prʌvɪnʃʌl": 5721,
      "ʃɔn": 5722,
      "rɪzɪst": 5723,
      "ætmʌs": 5724,
      "ʃEkɪŋ": 5725,
      "ptʌn": 5726,
      "ʃAn": 5727,
      "dɪvAsʌz": 5728,
      "vietnɑm": 5729,
      "ɪndɜ": 5730,
      "dɪvɪʒʌnz": 5731,
      "ɪmplʌment": 5732,
      "Jusfʌl": 5733,
      "Adɜ": 5734,
      "pɔzd": 5735,
      "spɑrk": 5736,
      "ʌproct": 5737,
      "ɪnvAtʌd": 5738,
      "ʌbek": 5739,
      "lɪft": 5740,
      "rɪjektɪd": 5741,
      "kwɪn": 5742,
      "dɪkri": 5743,
      "Jʌnt": 5744,
      "tic": 5745,
      "lʌŋ": 5746,
      "gris": 5747,
      "foto": 5748,
      "Atʌmz": 5749,
      "ejʌkEʃʌnʌl": 5750,
      "bonz": 5751,
      "trEnd": 5752,
      "kæb": 5753,
      "tEnɪŋ": 5754,
      "dekEd": 5755,
      "kEbʌl": 5756,
      "cel": 5757,
      "ʌnʌs": 5758,
      "briðɪŋ": 5759,
      "dɪfɜʌnsɪz": 5760,
      "ætɜd": 5761,
      "nɑr": 5762,
      "rʌgbi": 5763,
      "ɑrjʌn": 5764,
      "menz": 5765,
      "sɪgnɪfɪk": 5766,
      "kʌb": 5767,
      "ʌpru": 5768,
      "lept": 5769,
      "dɪpɑrt": 5770,
      "kʌmpæn": 5771,
      "elʌmentri": 5772,
      "fʌndz": 5773,
      "vAt": 5774,
      "sɪdi": 5775,
      "prɑp": 5776,
      "ɪnsɪst": 5777,
      "sɪriʌsli": 5778,
      "pEntʌd": 5779,
      "dɑkJʌmʌnts": 5780,
      "hʌni": 5781,
      "gwɑ": 5782,
      "ælkʌhɑl": 5783,
      "ɪnstrʌmʌnts": 5784,
      "ʌpɪrɪŋ": 5785,
      "krɪstʌl": 5786,
      "sɪgnɪfɪkʌntli": 5787,
      "ɪnstɔld": 5788,
      "grɪm": 5789,
      "ʃɪr": 5790,
      "bJuti": 5791,
      "ɑrtʌkʌlz": 5792,
      "sted": 5793,
      "pætrɪk": 5794,
      "ʌfʌkEʃʌnz": 5795,
      "kɑlʌni": 5796,
      "æknɑl": 5797,
      "ædɪŋ": 5798,
      "hʌntɪŋ": 5799,
      "cæmpiʌnʃɪps": 5800,
      "vɪzʌbʌl": 5801,
      "rekri": 5802,
      "lEʃʌn": 5803,
      "pɑpJʌlerʌti": 5804,
      "ɪnjɜi": 5805,
      "ʌsæsʌn": 5806,
      "trævʌlɪŋ": 5807,
      "juli": 5808,
      "pɑrtɪsʌpEtʌd": 5809,
      "rikwAɜz": 5810,
      "dɪskʌs": 5811,
      "lokʌmotɪv": 5812,
      "ɔfɜɪŋ": 5813,
      "bɪgʌst": 5814,
      "wɔrnɪŋ": 5815,
      "ɑbviʌsli": 5816,
      "Ego": 5817,
      "flaɜz": 5818,
      "ʌntAn": 5819,
      "rAdɪŋ": 5820,
      "skejʊld": 5821,
      "kɑsts": 5822,
      "ʃʊrʌns": 5823,
      "ɔθɜz": 5824,
      "ætʌl": 5825,
      "trʌn": 5826,
      "helpɪŋ": 5827,
      "eʃʌnz": 5828,
      "atɜ": 5829,
      "vɜz": 5830,
      "venc": 5831,
      "ʌgnEʃʌn": 5832,
      "lʌmentɜi": 5833,
      "tɪn": 5834,
      "vɪʒʌwʌl": 5835,
      "iʌs": 5836,
      "nɪkʌlʌs": 5837,
      "cæpʌl": 5838,
      "ræpʌdli": 5839,
      "ɪnstɪtuʃʌn": 5840,
      "uʌl": 5841,
      "kænzʌs": 5842,
      "ɪkspensɪv": 5843,
      "sidɪŋ": 5844,
      "ʌmʌ": 5845,
      "lAnd": 5846,
      "bɑtʌl": 5847,
      "bʌd": 5848,
      "hEz": 5849,
      "brest": 5850,
      "rændʌm": 5851,
      "kɪnz": 5852,
      "bɪgʌn": 5853,
      "wu": 5854,
      "ʌkJuzd": 5855,
      "lændʌd": 5856,
      "ʌkʌ": 5857,
      "prʌtektʌd": 5858,
      "letɪŋ": 5859,
      "pɜsu": 5860,
      "græjuEtɪd": 5861,
      "JuesE": 5862,
      "kin": 5863,
      "refJu": 5864,
      "ægrɪkʌlcɜ": 5865,
      "frut": 5866,
      "hæmʌl": 5867,
      "soljɜ": 5868,
      "ʌpɑlʌj": 5869,
      "netwɜks": 5870,
      "edʌn": 5871,
      "da": 5872,
      "klæn": 5873,
      "dɪmændʌd": 5874,
      "bots": 5875,
      "leðɜ": 5876,
      "ɪnkrisɪŋli": 5877,
      "hevʌn": 5878,
      "pæsʌj": 5879,
      "bɜi": 5880,
      "ɪgnɔr": 5881,
      "sɪstɜz": 5882,
      "ræpʌd": 5883,
      "ɪksepʃʌn": 5884,
      "cɑrjʌz": 5885,
      "rispɑnsʌbɪlʌti": 5886,
      "refɜ": 5887,
      "gost": 5888,
      "gEl": 5889,
      "testɪŋ": 5890,
      "ɜAvʌl": 5891,
      "ʌpriʃi": 5892,
      "ʌkʌmpʌnid": 5893,
      "ʌplA": 5894,
      "ʃʊgɜ": 5895,
      "Juzɜ": 5896,
      "ɪzʌmz": 5897,
      "krE": 5898,
      "lAʌn": 5899,
      "ɪnɪʃi": 5900,
      "ræf": 5901,
      "filɪŋz": 5902,
      "bɑs": 5903,
      "smAlɪŋ": 5904,
      "sOl": 5905,
      "mæncestɜ": 5906,
      "ʌlAd": 5907,
      "truli": 5908,
      "lejʌslEtɪv": 5909,
      "æc": 5910,
      "etʌ": 5911,
      "vɪzʌtɜz": 5912,
      "usɪŋ": 5913,
      "æmi": 5914,
      "sætɜdi": 5915,
      "ɪmɜjd": 5916,
      "kwʌbek": 5917,
      "jʌmpt": 5918,
      "kændʌdEts": 5919,
      "væst": 5920,
      "lɜEʃʌn": 5921,
      "engEjd": 5922,
      "tʌf": 5923,
      "ɪnkantɜ": 5924,
      "sevʌntinθ": 5925,
      "smɑrt": 5926,
      "fEvɜɪt": 5927,
      "twelf": 5928,
      "sæmJul": 5929,
      "bæθru": 5930,
      "***": 5931,
      "ɑti": 5932,
      "æntɪk": 5933,
      "twɪn": 5934,
      "ɪnθ": 5935,
      "ɪntɜʌp": 5936,
      "hJumæn": 5937,
      "ɜinʌ": 5938,
      "ɜEnjd": 5939,
      "brɑ": 5940,
      "bʌli": 5941,
      "ʌvEʃʌn": 5942,
      "bæpt": 5943,
      "drɪf": 5944,
      "repJʌtEʃʌn": 5945,
      "kʌnkludʌd": 5946,
      "merʌt": 5947,
      "piEc": 5948,
      "ʌstriz": 5949,
      "fJʊri": 5950,
      "Junʌfɔrm": 5951,
      "ɑnʌst": 5952,
      "fɪzɪks": 5953,
      "dʌtɜmʌn": 5954,
      "kævʌl": 5955,
      "jɜnʌlʌst": 5956,
      "keli": 5957,
      "fʌndɪŋ": 5958,
      "æŋkɜ": 5959,
      "muviz": 5960,
      "gɜz": 5961,
      "Eniʌ": 5962,
      "ræk": 5963,
      "wikend": 5964,
      "frid": 5965,
      "kɔn": 5966,
      "ʌdɪʃʌnʌli": 5967,
      "bɜst": 5968,
      "spl": 5969,
      "oʌn": 5970,
      "teknik": 5971,
      "dɔn": 5972,
      "enjOd": 5973,
      "weræz": 5974,
      "ɪlɜi": 5975,
      "rezɪdʌns": 5976,
      "ɑrn": 5977,
      "hæŋɪŋ": 5978,
      "fedɜEʃʌn": 5979,
      "blEd": 5980,
      "pɪts": 5981,
      "gʌlf": 5982,
      "strætʌji": 5983,
      "lɔJɜ": 5984,
      "hApɜ": 5985,
      "hɔrɜ": 5986,
      "sɪkstinθ": 5987,
      "poʌm": 5988,
      "prɑmʌst": 5989,
      "ɪkspekt": 5990,
      "dʌbEt": 5991,
      "slɪpt": 5992,
      "ɪzl": 5993,
      "benʌfɪt": 5994,
      "pOz": 5995,
      "fʌnæns": 5996,
      "olɪmpɪks": 5997,
      "frikwʌnsi": 5998,
      "fleʃ": 5999,
      "va": 6000,
      "trɪ": 6001,
      "wɪsk": 6002,
      "mænJʌfækcɜɪŋ": 6003,
      "ɪgzɪstʌd": 6004,
      "mantʌd": 6005,
      "ʌpʌlz": 6006,
      "mɪnɪs": 6007,
      "sʌbmɜin": 6008,
      "ɪnsʌlʌ": 6009,
      "atpʊt": 6010,
      "tenʃʌn": 6011,
      "ɪbɜ": 6012,
      "ʃio": 6013,
      "jinʌs": 6014,
      "reslɪŋ": 6015,
      "brɑnz": 6016,
      "meksʌkʌn": 6017,
      "mɪz": 6018,
      "ʌsɪz": 6019,
      "pʌnɪnsʌlʌ": 6020,
      "nɜvʌs": 6021,
      "tind": 6022,
      "pɑrkɪŋ": 6023,
      "mætɜz": 6024,
      "ɪzlɑmɪk": 6025,
      "ʌθʌn": 6026,
      "θʌ": 6027,
      "fEsɪŋ": 6028,
      "snæpt": 6029,
      "krɪpt": 6030,
      "ritAɜ": 6031,
      "ritAɜmʌnt": 6032,
      "sɑv": 6033,
      "dæmʌjd": 6034,
      "stres": 6035,
      "prɑgres": 6036,
      "ɑkrʌsi": 6037,
      "pʌŋk": 6038,
      "dAʌg": 6039,
      "hʌwA": 6040,
      "sɪr": 6041,
      "edʌtʌd": 6042,
      "gɪft": 6043,
      "ʌpɔr": 6044,
      "tritʌd": 6045,
      "æskʌ": 6046,
      "bɑrd": 6047,
      "ezʌnt": 6048,
      "dezɜt": 6049,
      "næs": 6050,
      "tɔkt": 6051,
      "ælʌg": 6052,
      "ætlænt": 6053,
      "lɪŋkt": 6054,
      "ɑbviʌs": 6055,
      "nEbɜɪŋ": 6056,
      "kʌmi": 6057,
      "nest": 6058,
      "bɪŋ": 6059,
      "hEl": 6060,
      "silɪŋ": 6061,
      "glen": 6062,
      "revʌn": 6063,
      "froz": 6064,
      "fæntʌsi": 6065,
      "bɑðɜ": 6066,
      "kop": 6067,
      "mægnetɪk": 6068,
      "æsi": 6069,
      "bandɜi": 6070,
      "klɔr": 6071,
      "tsʌn": 6072,
      "pɜsʌnel": 6073,
      "kɑntʌnentʌl": 6074,
      "gʌlz": 6075,
      "mJuzɪʃʌnz": 6076,
      "ʌkɑmʌd": 6077,
      "liʌm": 6078,
      "iziɜ": 6079,
      "stEtɪŋ": 6080,
      "%,": 6081,
      "θɜʌn": 6082,
      "drʌgz": 6083,
      "kʌnz": 6084,
      "læd": 6085,
      "plEɔf": 6086,
      "meʒɜz": 6087,
      "bʌtælJʌn": 6088,
      "hozE": 6089,
      "mɪsɪs": 6090,
      "stɔrʌj": 6091,
      "gret": 6092,
      "mʌnEʃʌn": 6093,
      "dɪzni": 6094,
      "rAs": 6095,
      "rʌtɪv": 6096,
      "skim": 6097,
      "rɑm": 6098,
      "ɪvæl": 6099,
      "egzɪt": 6100,
      "lusi": 6101,
      "ædvencɜ": 6102,
      "bræncʌz": 6103,
      "kʌmponʌnts": 6104,
      "sEvd": 6105,
      "ɪntrʌsts": 6106,
      "opi": 6107,
      "terʌtɔriz": 6108,
      "kluʒʌn": 6109,
      "erlAnz": 6110,
      "kʌmɪtʌd": 6111,
      "rɪspɑndɪd": 6112,
      "ʌmend": 6113,
      "fAndz": 6114,
      "sʌgjests": 6115,
      "ozɪŋ": 6116,
      "tempr": 6117,
      "mɪnɪsotʌ": 6118,
      "rɑs": 6119,
      "stef": 6120,
      "cɑrtɜ": 6121,
      "ɪjʌnʌs": 6122,
      "fɪkʃʌnʌl": 6123,
      "ʃuz": 6124,
      "pɑlʌsiz": 6125,
      "tElz": 6126,
      "ɔrθʌdɑks": 6127,
      "mAnɪŋ": 6128,
      "iθʌn": 6129,
      "bɪznʌsʌz": 6130,
      "vɜcu": 6131,
      "tælʌnt": 6132,
      "krʌʃ": 6133,
      "kɑntekst": 6134,
      "pɔrtrEd": 6135,
      "tre": 6136,
      "læfɪŋ": 6137,
      "entɜprAz": 6138,
      "bæθrum": 6139,
      "jɪmi": 6140,
      "klɔz": 6141,
      "Ejʌnts": 6142,
      "dɪplʌm": 6143,
      "grɪnd": 6144,
      "dɪstrɪbJʌtʌd": 6145,
      "kostʌl": 6146,
      "ɪnsɜ": 6147,
      "reprɪzentɪŋ": 6148,
      "ɪnjɜd": 6149,
      "sest": 6150,
      "pɑrlʌmentɜi": 6151,
      "jʌns": 6152,
      "kæʒʌwʌl": 6153,
      "ɪnherʌt": 6154,
      "brʌgEd": 6155,
      "ʌlin": 6156,
      "fæt": 6157,
      "lEks": 6158,
      "mɑdʌfAd": 6159,
      "ʌpil": 6160,
      "gɑlf": 6161,
      "strɪkt": 6162,
      "mʌzʊri": 6163,
      "sʌlekʃʌn": 6164,
      "ʌdæptʌd": 6165,
      "kredʌtʌd": 6166,
      "ɪnc": 6167,
      "olt": 6168,
      "vɑ": 6169,
      "hAdr": 6170,
      "wɑntɪŋ": 6171,
      "ful": 6172,
      "defʌnʌtli": 6173,
      "θre": 6174,
      "jiʌgræf": 6175,
      "lʌki": 6176,
      "jeri": 6177,
      "mɔrgʌn": 6178,
      "ɜtʌn": 6179,
      "Evʌn": 6180,
      "kʌntɪnJuɪŋ": 6181,
      "kriEtɪv": 6182,
      "trem": 6183,
      "fɔlt": 6184,
      "kent": 6185,
      "wes": 6186,
      "rEcʌl": 6187,
      "ʌpruvʌl": 6188,
      "dro": 6189,
      "sɜkʌmstæns": 6190,
      "hedɪŋ": 6191,
      "ʌkants": 6192,
      "ænθr": 6193,
      "hæp": 6194,
      "brEs": 6195,
      "metro": 6196,
      "glE": 6197,
      "rɪtEnd": 6198,
      "ɪnvestmʌnt": 6199,
      "onio": 6200,
      "ʃɑ": 6201,
      "mænz": 6202,
      "!''``": 6203,
      "hens": 6204,
      "kɑnstʌtuʃʌnʌl": 6205,
      "lɔrdz": 6206,
      "pʌnɪʃ": 6207,
      "mʌndi": 6208,
      "ʒɜi": 6209,
      "rɪstɔrd": 6210,
      "prɔses": 6211,
      "jʌmp": 6212,
      "æmʌ": 6213,
      "wundʌd": 6214,
      "ʌmpʃʌn": 6215,
      "bɑrbɜ": 6216,
      "hɑst": 6217,
      "ɪndɪjʌnʌs": 6218,
      "temp": 6219,
      "lɪŋks": 6220,
      "kʌnsɜnz": 6221,
      "co": 6222,
      "lup": 6223,
      "herʌld": 6224,
      "fJun": 6225,
      "trɑpɪkʌl": 6226,
      "gra": 6227,
      "wɪg": 6228,
      "ʃɑps": 6229,
      "ciks": 6230,
      "teri": 6231,
      "mɪdnɪntind": 6232,
      "kɑmpʌzɪʃʌn": 6233,
      "ænθʌni": 6234,
      "ænʌmEtʌd": 6235,
      "lʌnt": 6236,
      "plæstɪk": 6237,
      "vetɜ": 6238,
      "prʌmot": 6239,
      "dEtɪd": 6240,
      "dɪstɪŋgwɪʃt": 6241,
      "lɑn": 6242,
      "hʌnɜ": 6243,
      "jɑbz": 6244,
      "træv": 6245,
      "kʌzʌn": 6246,
      "slipɪŋ": 6247,
      "ritri": 6248,
      "ɪnvɑlvɪŋ": 6249,
      "enʃʌnʌl": 6250,
      "cɪli": 6251,
      "kov": 6252,
      "seʃʌnz": 6253,
      "EviEʃʌn": 6254,
      "fæl": 6255,
      "ped": 6256,
      "cE": 6257,
      "sʌksesɜ": 6258,
      "trɪb": 6259,
      "ʃɑpɪŋ": 6260,
      "nɔrwE": 6261,
      "suʌsAd": 6262,
      "ɪndʌstriz": 6263,
      "gʌt": 6264,
      "ɜest": 6265,
      "twelfθ": 6266,
      "vɪns": 6267,
      "gɑrdʌnz": 6268,
      "trAbz": 6269,
      "gɔrdʌn": 6270,
      "brus": 6271,
      "kʌnsɪdɜʌbʌl": 6272,
      "strɔŋli": 6273,
      "mɜk": 6274,
      "ɪrɑk": 6275,
      "fɔrtiz": 6276,
      "friz": 6277,
      "pɑsʌbɪlʌti": 6278,
      "bɜθdE": 6279,
      "ɪʃʌ": 6280,
      "θʌndɜ": 6281,
      "rend": 6282,
      "trænzɪt": 6283,
      "revʌluʃʌneri": 6284,
      "dɪklAnd": 6285,
      "dAɪŋ": 6286,
      "dutiz": 6287,
      "tɔrn": 6288,
      "dɑgz": 6289,
      "tum": 6290,
      "sɪmʌlɜli": 6291,
      "krɑp": 6292,
      "eksʌbɪʃʌn": 6293,
      "hɪstɔrɪkʌli": 6294,
      "mɑrgɜ": 6295,
      "mɑrkʌts": 6296,
      "fɔ": 6297,
      "ebr": 6298,
      "hil": 6299,
      "jon": 6300,
      "kEl": 6301,
      "ritEl": 6302,
      "regJʌlɜli": 6303,
      "ʌtɜni": 6304,
      "Jæŋk": 6305,
      "sentʌns": 6306,
      "ɑts": 6307,
      "geri": 6308,
      "ɪnfluencʌl": 6309,
      "ʌkɑmpl": 6310,
      "beg": 6311,
      "ɔrʌl": 6312,
      "fɪgJɜd": 6313,
      "krɪtɪsɪzʌm": 6314,
      "rerli": 6315,
      "kɑlɪjɪz": 6316,
      "hAn": 6317,
      "eko": 6318,
      "ɪksperʌmʌnt": 6319,
      "hænʌ": 6320,
      "Azɜz": 6321,
      "ʌnJuʒʌwʌl": 6322,
      "eniwer": 6323,
      "stɪf": 6324,
      "bluz": 6325,
      "blɑks": 6326,
      "ælgɜ": 6327,
      "ban": 6328,
      "rɪkɔrdɪŋz": 6329,
      "herɪs": 6330,
      "dɪstrʌkʃʌn": 6331,
      "trʌdɪʃʌnʌli": 6332,
      "ʌstɜ": 6333,
      "θretʌnd": 6334,
      "hɔn": 6335,
      "æŋz": 6336,
      "ʌkses": 6337,
      "kwɪ": 6338,
      "fɔls": 6339,
      "ɪgzɪsts": 6340,
      "oniʌn": 6341,
      "koʌlɪʃʌn": 6342,
      "Eliʌn": 6343,
      "kevɪn": 6344,
      "ʌps": 6345,
      "tes": 6346,
      "memɜiz": 6347,
      "rʌsʌl": 6348,
      "mEkɜ": 6349,
      "fækʌlti": 6350,
      "ɪndʌkEt": 6351,
      "kɔri": 6352,
      "sætʌlAt": 6353,
      "tulz": 6354,
      "tempɜeri": 6355,
      "solɜ": 6356,
      "æspekts": 6357,
      "welc": 6358,
      "slA": 6359,
      "bʌtɜ": 6360,
      "prɪzʌnɜz": 6361,
      "ɔto": 6362,
      "trAb": 6363,
      "hɑrvɜd": 6364,
      "ɪvɜ": 6365,
      "ɪfektɪvli": 6366,
      "æbk": 6367,
      "brek": 6368,
      "grEtli": 6369,
      "prɪnsʌpʌlz": 6370,
      "pʌblɪkEʃʌnz": 6371,
      "bɪlbɔrd": 6372,
      "pruf": 6373,
      "kɑnɜ": 6374,
      "sælv": 6375,
      "tent": 6376,
      "won": 6377,
      "dæl": 6378,
      "frikwʌnt": 6379,
      "frand": 6380,
      "jɔrdʌn": 6381,
      "kloðɪŋ": 6382,
      "Jutʌl": 6383,
      "græjuʌli": 6384,
      "dʊr": 6385,
      "mæθJu": 6386,
      "ʌkli": 6387,
      "entɜɪŋ": 6388,
      "ælʌb": 6389,
      "kla": 6390,
      "spɪrɪcʌwʌl": 6391,
      "sendɪŋ": 6392,
      "emz": 6393,
      "dienE": 6394,
      "hæmɜ": 6395,
      "fAlz": 6396,
      "drɪŋkɪŋ": 6397,
      "gɪg": 6398,
      "sʌbjɪk": 6399,
      "cAldhʊd": 6400,
      "vEl": 6401,
      "ɪlektrɪkʌl": 6402,
      "ɪntrʌstɪŋ": 6403,
      "skerd": 6404,
      "sʌbjɪkts": 6405,
      "grɪp": 6406,
      "olz": 6407,
      "hɑrdɜ": 6408,
      "kenʌdi": 6409,
      "(,": 6410,
      "rɪplEsmʌnt": 6411,
      "ʌŋkʌn": 6412,
      "sAtʌd": 6413,
      "ɪkstɜnʌl": 6414,
      "cæmpiʌnz": 6415,
      "ʌsɪstʌns": 6416,
      "trænsmɪt": 6417,
      "mil": 6418,
      "ɔriʌnz": 6419,
      "tEp": 6420,
      "ɑrkʌtekt": 6421,
      "ædʌl": 6422,
      "klæsʌfAd": 6423,
      "fO": 6424,
      "kerfʌl": 6425,
      "tenʌsi": 6426,
      "ɪlektrɑn": 6427,
      "præktʌkʌl": 6428,
      "pæʃʌn": 6429,
      "bʌg": 6430,
      "stAlz": 6431,
      "mɪlk": 6432,
      "præktʌsʌz": 6433,
      "swet": 6434,
      "mæθʌmætɪks": 6435,
      "trænsmɪʃʌn": 6436,
      "jɑnʌθʌn": 6437,
      "græv": 6438,
      "fɔrhed": 6439,
      "far": 6440,
      "mænJʌs": 6441,
      "kʌnkrit": 6442,
      "elɜ": 6443,
      "dɪpreʃʌn": 6444,
      "ʃɔ": 6445,
      "jOnɪŋ": 6446,
      "ɪtɪk": 6447,
      "ɑrtɪlɜi": 6448,
      "rimuv": 6449,
      "ɪvælJu": 6450,
      "krus": 6451,
      "kɜt": 6452,
      "lɪsʌnɪŋ": 6453,
      "mʌʃinz": 6454,
      "sidz": 6455,
      "klɪrd": 6456,
      "wɔkɜ": 6457,
      "stɜd": 6458,
      "jæm": 6459,
      "ædʌpt": 6460,
      "ɑgʌ": 6461,
      "æpɜ": 6462,
      "bAbʌl": 6463,
      "AdentʌfA": 6464,
      "zEn": 6465,
      "drɪvʌn": 6466,
      "lɪmɪtɪd": 6467,
      "θɔr": 6468,
      "sɪmpl": 6469,
      "mʌtɜd": 6470,
      "gæðɜd": 6471,
      "ɪkspozd": 6472,
      "sibies": 6473,
      "nobʌl": 6474,
      "strʌti": 6475,
      "væmpArz": 6476,
      "ædʌmz": 6477,
      "dænsɪŋ": 6478,
      "itɪŋ": 6479,
      "kɑlɜɑdo": 6480,
      "dɪskrɪpʃʌn": 6481,
      "kɑmʌnwelθ": 6482,
      "jɔr": 6483,
      "strʌgʌl": 6484,
      "fɪʃɜ": 6485,
      "prʌdʌkʃʌnz": 6486,
      "kɔrʌspɑnd": 6487,
      "mʌðɜz": 6488,
      "spʌn": 6489,
      "ðz": 6490,
      "mɑdɜ": 6491,
      "dʌv": 6492,
      "jio": 6493,
      ".-": 6494,
      "kʌnvɪns": 6495,
      "bɜk": 6496,
      "ædʌptEʃʌn": 6497,
      "kʌnsɪdɜɪŋ": 6498,
      "hosts": 6499,
      "lejʌslEʃʌn": 6500,
      "blɑnd": 6501,
      "ʃatʌd": 6502,
      "kliv": 6503,
      "krAd": 6504,
      "wʌts": 6505,
      "sAkɑl": 6506,
      "tʌnʌns": 6507,
      "ækw": 6508,
      "gɪlti": 6509,
      "hEtʌd": 6510,
      "stedi": 6511,
      "kɑrtun": 6512,
      "fiz": 6513,
      "trEdɪŋ": 6514,
      "frendli": 6515,
      "prɑt": 6516,
      "dɪfAn": 6517,
      "uzi": 6518,
      "brEks": 6519,
      "hɜʌk": 6520,
      "Etʌn": 6521,
      "juliʌn": 6522,
      "gɪtɑrʌst": 6523,
      "nɔrwi": 6524,
      "rOt": 6525,
      "ʌmɜ": 6526,
      "Jɑn": 6527,
      "ɑtʌmʌn": 6528,
      "ɪndeks": 6529,
      "kænsʌld": 6530,
      "duʌl": 6531,
      "kɑndʌkt": 6532,
      "teks": 6533,
      "θɜtinθ": 6534,
      "vOsʌz": 6535,
      "hæmʌltʌn": 6536,
      "diEgo": 6537,
      "brɔdwE": 6538,
      "swɪs": 6539,
      "rɪpɔr": 6540,
      "mɪrli": 6541,
      "mJuzɪʃʌn": 6542,
      "selʌbrEtʌd": 6543,
      "kʌnsek": 6544,
      "mʌkænɪkʌl": 6545,
      "prʌmoʃʌn": 6546,
      "prɪntʌd": 6547,
      "fAd": 6548,
      "spikɜ": 6549,
      "gEts": 6550,
      "krʌd": 6551,
      "mɪsɪsɪpi": 6552,
      "mɑsko": 6553,
      "dɪfensɪv": 6554,
      "membɜʃɪp": 6555,
      "fræŋklɪn": 6556,
      "dɪtEl": 6557,
      "reprʌzents": 6558,
      "æzʌm": 6559,
      "lɪkwʌd": 6560,
      "Jumz": 6561,
      "pʊʃɪŋ": 6562,
      "ælfr": 6563,
      "pɑrtnɜʃɪp": 6564,
      "ɪnstrʌmʌnt": 6565,
      "helɪk": 6566,
      "rɪtɜnz": 6567,
      "eksplʌn": 6568,
      "sɜkʌmstænsʌz": 6569,
      "lEɜ": 6570,
      "omʌ": 6571,
      "mɑnʌtɜ": 6572,
      "ɔlz": 6573,
      "kʌnvɪnst": 6574,
      "lɪθ": 6575,
      "grɪf": 6576,
      "mænʌf": 6577,
      "filz": 6578,
      "ɪmidiʌt": 6579,
      "Adɪd": 6580,
      "ɑrmɜ": 6581,
      "ɜs": 6582,
      "ɪrd": 6583,
      "prad": 6584,
      "prʌgresɪv": 6585,
      "deθs": 6586,
      "lɪmʌts": 6587,
      "cʌwʌl": 6588,
      "temprʌcɜz": 6589,
      "ticɜz": 6590,
      "kɑnsɜv": 6591,
      "setlɜz": 6592,
      "swɪt": 6593,
      "Aʌ": 6594,
      "dʌpɑz": 6595,
      "ɪndʌkEtʌd": 6596,
      "spɑr": 6597,
      "ʌkEtɪd": 6598,
      "rʌz": 6599,
      "tʌp": 6600,
      "fræncAz": 6601,
      "dɔtɜz": 6602,
      "esi": 6603,
      "sɪsts": 6604,
      "sækrʌf": 6605,
      "Arʌs": 6606,
      "jʌz": 6607,
      "sæks": 6608,
      "dʌbl": 6609,
      "nɑtsi": 6610,
      "brɪg": 6611,
      "ʌŋks": 6612,
      "tuz": 6613,
      "ʌmʌt": 6614,
      "soʃʌlʌst": 6615,
      "sɪts": 6616,
      "mɪstEk": 6617,
      "sprɪŋz": 6618,
      "pEntɪŋz": 6619,
      "ɑnsʌn": 6620,
      "læstʌd": 6621,
      "fʌnɑmʌn": 6622,
      "hAm": 6623,
      "totʌli": 6624,
      "krɪstʌfɜ": 6625,
      "wand": 6626,
      "kæf": 6627,
      "iɜz": 6628,
      "sɜvAvɪŋ": 6629,
      "æftɜwɜdz": 6630,
      "robɑt": 6631,
      "supɪriɜ": 6632,
      "kʌlæps": 6633,
      "kænd": 6634,
      "rezʌluʃʌn": 6635,
      "ʌkJu": 6636,
      "onɜʃɪp": 6637,
      "ædvAs": 6638,
      "Jild": 6639,
      "fɔrsɪŋ": 6640,
      "frAdi": 6641,
      "mʌsʌlz": 6642,
      "kʌnsekJʌtɪv": 6643,
      "kʌnvin": 6644,
      "lejʌslE": 6645,
      "dipli": 6646,
      "mænJu": 6647,
      "ændi": 6648,
      "kɑnsɜvEʃʌn": 6649,
      "drimz": 6650,
      "fɪlʌpinz": 6651,
      "ɔstriʌ": 6652,
      "skɔrɪŋ": 6653,
      "romæntɪk": 6654,
      "rɪspɑnd": 6655,
      "ɪkʃʌnz": 6656,
      "ɑgrʌfɜ": 6657,
      "melbɜn": 6658,
      "mɑrgɜɪt": 6659,
      "mʌsʌl": 6660,
      "ʌdmɪt": 6661,
      "hɑlʌdE": 6662,
      "dɪtektɪv": 6663,
      "pænts": 6664,
      "ɪgnɔrd": 6665,
      "tenʌs": 6666,
      "septs": 6667,
      "mɔrʌl": 6668,
      "ɪksAt": 6669,
      "ɑdz": 6670,
      "ɪjɪp": 6671,
      "klad": 6672,
      "kɑrtɜ": 6673,
      "kæriɜ": 6674,
      "ʌtræktʌd": 6675,
      "kɜk": 6676,
      "bold": 6677,
      "mɪnʌmʌm": 6678,
      "hæpʌnɪŋ": 6679,
      "sʌplAz": 6680,
      "ɪgzɔst": 6681,
      "fenl": 6682,
      "pɜsp": 6683,
      "sæŋ": 6684,
      "poz": 6685,
      "bɑrz": 6686,
      "rEʃio": 6687,
      "ʃaɜ": 6688,
      "sɪriʌl": 6689,
      "æntonio": 6690,
      "kævʌlri": 6691,
      "fækʃʌn": 6692,
      "stEjʌz": 6693,
      "minwAl": 6694,
      "perʌnt": 6695,
      "dief": 6696,
      "ɪnʃʊrʌns": 6697,
      "peri": 6698,
      "cænʌlz": 6699,
      "prɪdɪkt": 6700,
      "klɔ": 6701,
      "ʌnans": 6702,
      "næk": 6703,
      "ron": 6704,
      "sAʌntɪsts": 6705,
      "lejʌslEcɜ": 6706,
      "prʌfeʃʌn": 6707,
      "ɑnts": 6708,
      "mɪlz": 6709,
      "æmbæs": 6710,
      "blʌdi": 6711,
      "fAld": 6712,
      "ʌnsʌkses": 6713,
      "vAʌlʌnt": 6714,
      "lʌnc": 6715,
      "ʌmEzɪŋ": 6716,
      "sɪmpt": 6717,
      "skræ": 6718,
      "pɜʒʌn": 6719,
      "rɪkwArmʌnts": 6720,
      "ʌsɔlt": 6721,
      "nEk": 6722,
      "pʌls": 6723,
      "benc": 6724,
      "bɔlz": 6725,
      "atstændɪŋ": 6726,
      "lɑs": 6727,
      "vɑk": 6728,
      "krʌn": 6729,
      "floz": 6730,
      "veriʌnt": 6731,
      "piem": 6732,
      "krim": 6733,
      "strɔŋɜ": 6734,
      "ʃædoz": 6735,
      "nɔrmʌn": 6736,
      "rAfʌl": 6737,
      "ɪndoni": 6738,
      "dælʌs": 6739,
      "ʌkl": 6740,
      "ɑlʌjiz": 6741,
      "dɪsent": 6742,
      "helɪkɑp": 6743,
      "pɜl": 6744,
      "ɑrgJʌmʌnt": 6745,
      "ɪkstent": 6746,
      "nevɜðʌles": 6747,
      "krɪtɪk": 6748,
      "pitɜz": 6749,
      "klæsʌfʌkEʃʌn": 6750,
      "nɔrwijʌn": 6751,
      "rezɪdencʌl": 6752,
      "sɪŋk": 6753,
      "θʌl": 6754,
      "bEsʌn": 6755,
      "ɪndiænʌ": 6756,
      "tɜki": 6757,
      "enʌmiz": 6758,
      "spendɪŋ": 6759,
      "pætʌnt": 6760,
      "mɑrʃ": 6761,
      "merʌlʌnd": 6762,
      "ɑptʌm": 6763,
      "ɪʃʌnsi": 6764,
      "wAdspred": 6765,
      "ʌfensɪv": 6766,
      "klEmɪŋ": 6767,
      "ædz": 6768,
      "reprʌzentEʃʌn": 6769,
      "pwer": 6770,
      "pɑrtli": 6771,
      "loɜd": 6772,
      "sɜkJʌl": 6773,
      "æfts": 6774,
      "ɪbʌn": 6775,
      "bæks": 6776,
      "sɪŋʌpɔr": 6777,
      "kɑnsʌntrEʃʌn": 6778,
      "mɑnʌst": 6779,
      "æmb": 6780,
      "protest": 6781,
      "pænʌl": 6782,
      "ɪriz": 6783,
      "trænzɪʃʌn": 6784,
      "mEts": 6785,
      "θrʌst": 6786,
      "mʌntri": 6787,
      "rɪplEsɪŋ": 6788,
      "swɪtsɜ": 6789,
      "prʌfɜd": 6790,
      "pɑrʃʌli": 6791,
      "mud": 6792,
      "skrɪpʃʌn": 6793,
      "prɑk": 6794,
      "kɑntrʌvɜsi": 6795,
      "krɑnɪk": 6796,
      "prɑvʌnsʌz": 6797,
      "æksʌd": 6798,
      "kʌts": 6799,
      "ɑrmiz": 6800,
      "sikɪŋ": 6801,
      "dɪtrOt": 6802,
      "kɑntrʌvɜʃʌl": 6803,
      "ɪlevʌnθ": 6804,
      "sɪp": 6805,
      "ædmɜʌl": 6806,
      "ʃr": 6807,
      "ælɪk": 6808,
      "prʌpozʌl": 6809,
      "twi": 6810,
      "pEʃʌnt": 6811,
      "pɜspektɪv": 6812,
      "pɑpJʌlEʃʌnz": 6813,
      "ɪlz": 6814,
      "ɑkJʌpEʃʌn": 6815,
      "flAts": 6816,
      "mɑrvʌl": 6817,
      "fɪlmd": 6818,
      "esk": 6819,
      "wɔrʌn": 6820,
      "niʌn": 6821,
      "æncʌl": 6822,
      "kɔst": 6823,
      "hJustʌn": 6824,
      "mEntʌnʌns": 6825,
      "vɑlJumz": 6826,
      "bɑrn": 6827,
      "kɑpɜ": 6828,
      "stʌdiɪŋ": 6829,
      "slAd": 6830,
      "trækt": 6831,
      "strect": 6832,
      "tokio": 6833,
      "ʌsAn": 6834,
      "eksʌkJutʌd": 6835,
      "næʃʌnʌli": 6836,
      "ɪmber": 6837,
      "pʌm": 6838,
      "poʌmz": 6839,
      "nio": 6840,
      "fræg": 6841,
      "pɜsʌnælɪti": 6842,
      "ɪstɪkʌl": 6843,
      "ælAz": 6844,
      "vesʌlz": 6845,
      "stEk": 6846,
      "sʌfɜɪŋ": 6847,
      "pron": 6848,
      "ɪsenʃʌl": 6849,
      "krɑn": 6850,
      "rɑt": 6851,
      "fɔrtinθ": 6852,
      "θerʌpi": 6853,
      "slEv": 6854,
      "pEntɜ": 6855,
      "boz": 6856,
      "mʌntriɔl": 6857,
      "twɪstʌd": 6858,
      "æbsʌns": 6859,
      "pʌk": 6860,
      "mol": 6861,
      "kʌntɪnJuʌs": 6862,
      "mits": 6863,
      "sAmʌl": 6864,
      "wʊdlʌnt": 6865,
      "kwʌl": 6866,
      "bɔrdɜz": 6867,
      "prɑtʌst": 6868,
      "tæp": 6869,
      "æntʌn": 6870,
      "dɑkJʌmʌnt": 6871,
      "kac": 6872,
      "gn": 6873,
      "vJud": 6874,
      "erlAn": 6875,
      "ʃɑrlʌt": 6876,
      "bEkɜ": 6877,
      "klʌn": 6878,
      "θɔrn": 6879,
      "kælʌndɜ": 6880,
      "ɪstɜ": 6881,
      "ʌbjektɪv": 6882,
      "kɜz": 6883,
      "ɪlektɜʌl": 6884,
      "kɑtʌn": 6885,
      "læbrʌtɔri": 6886,
      "kʌtɪŋ": 6887,
      "enfɔrs": 6888,
      "sɑkɜ": 6889,
      "ʌvel": 6890,
      "mæps": 6891,
      "pɪg": 6892,
      "fɪftinθ": 6893,
      "pwerto": 6894,
      "dɑrt": 6895,
      "seθ": 6896,
      "ɪmplʌm": 6897,
      "rEli": 6898,
      "ɔrʌj": 6899,
      "tɑn": 6900,
      "kɔrsʌz": 6901,
      "prepɜ": 6902,
      "prɑsesɪŋ": 6903,
      "wɑʃ": 6904,
      "drAvɜz": 6905,
      "ɪskEpt": 6906,
      "frAt": 6907,
      "pɪriʌdz": 6908,
      "ɪkspɪriʌnsɪz": 6909,
      "kɑntrʌbJuʃʌnz": 6910,
      "lAm": 6911,
      "sosi": 6912,
      "Azʌn": 6913,
      "stænli": 6914,
      "encɜz": 6915,
      "mɑnstɜ": 6916,
      "protʌk": 6917,
      "vɪktʌmz": 6918,
      "kʌmpJutɜz": 6919,
      "sAmʌltEn": 6920,
      "ræg": 6921,
      "pænd": 6922,
      "toz": 6923,
      "denɪs": 6924,
      "ʃA": 6925,
      "bʌtʌn": 6926,
      "Jæŋ": 6927,
      "kɪr": 6928,
      "θɜz": 6929,
      "semʌn": 6930,
      "ɪsi": 6931,
      "æntɪsʌp": 6932,
      "\";": 6933,
      "oʒɜ": 6934,
      "grændfɑðɜ": 6935,
      "bɔ": 6936,
      "prɪsAs": 6937,
      "ɔrgʌnɪzEʃʌn": 6938,
      "swɪtsɜlʌnd": 6939,
      "ekʌnɑmɪks": 6940,
      "hAdɪŋ": 6941,
      "sɜjɜi": 6942,
      "wɪrd": 6943,
      "ɪnstʌn": 6944,
      "ɪntʌlek": 6945,
      "ɑvʌ": 6946,
      "ʌmʌŋst": 6947,
      "ʌʃʊr": 6948,
      "fɜgɑtʌn": 6949,
      "ɪŋhæm": 6950,
      "dAvɜ": 6951,
      "midiʌm": 6952,
      "tɜkɪʃ": 6953,
      "kʌnfJuʒʌn": 6954,
      "kloʒɜ": 6955,
      "pʌnt": 6956,
      "ta": 6957,
      "dɪnAd": 6958,
      "hæpʌnz": 6959,
      "kɔrpɜʌt": 6960,
      "lukʌs": 6961,
      "ʌmɪd": 6962,
      "nutr": 6963,
      "brekfʌst": 6964,
      "Jʊrz": 6965,
      "cɪp": 6966,
      "æfgæn": 6967,
      "ʌkw": 6968,
      "kæts": 6969,
      "kupɜ": 6970,
      "stɜn": 6971,
      "petr": 6972,
      "kʌstʌmɜz": 6973,
      "enkɜɪjd": 6974,
      "mɑŋ": 6975,
      "ʃit": 6976,
      "pikt": 6977,
      "ɪsɪz": 6978,
      "erɜ": 6979,
      "ræŋkɪŋ": 6980,
      "nʌst": 6981,
      "ʌpropriʌt": 6982,
      "slɪp": 6983,
      "ækselɜ": 6984,
      "rʌʒi": 6985,
      "ɜts": 6986,
      "rɪzɔrt": 6987,
      "lændskEp": 6988,
      "dʌs": 6989,
      "stɪm": 6990,
      "ɪmentʌl": 6991,
      "zæk": 6992,
      "ʌnfɔrcʌn": 6993,
      "psʌn": 6994,
      "ɑriʌ": 6995,
      "dɪsɪʒʌnz": 6996,
      "presɪŋ": 6997,
      "ɪkwɪpt": 6998,
      "Juro": 6999,
      "lAftAm": 7000,
      "nuzpEpɜz": 7001,
      "dɪskʌʃʌn": 7002,
      "kʌlar": 7003,
      "ʌnsɜtʌn": 7004,
      "bæθ": 7005,
      "sij": 7006,
      "fʌzɪʃʌn": 7007,
      "strʌtijɪk": 7008,
      "dʌblɪn": 7009,
      "ʌperʌnt": 7010,
      "fAnʌlz": 7011,
      "cæl": 7012,
      "sæmpʌl": 7013,
      "mægn": 7014,
      "ʌtrɪbJʌtʌd": 7015,
      "bæc": 7016,
      "prAd": 7017,
      "omi": 7018,
      "Aɜz": 7019,
      "ælfʌ": 7020,
      "næʃ": 7021,
      "nEkʌd": 7022,
      "bitɪŋ": 7023,
      "sAk": 7024,
      "hɪps": 7025,
      "lɪŋgwɪ": 7026,
      "sʌpɔrtɜz": 7027,
      "luizi": 7028,
      "hɔf": 7029,
      "eskɔrt": 7030,
      "logʌn": 7031,
      "lɪsts": 7032,
      "cæt": 7033,
      "sʌbsɪdi": 7034,
      "mɑnJu": 7035,
      "rekʌmendʌd": 7036,
      "kʌnvenʃʌnʌl": 7037,
      "fɪnɪʃɪŋ": 7038,
      "kʌmemɜ": 7039,
      "erɪz": 7040,
      "etʌn": 7041,
      "brɪl": 7042,
      "bEn": 7043,
      "ʊrʌ": 7044,
      "rilEʃʌnʃɪps": 7045,
      "sʌlɜ": 7046,
      "pies": 7047,
      "mɑrjʌn": 7048,
      "jækʌt": 7049,
      "rɪbJut": 7050,
      "Jʌz": 7051,
      "ɪksperɪmentʌl": 7052,
      "dAvɜs": 7053,
      "stɑps": 7054,
      "ɪlʌtiz": 7055,
      "dɪstɜb": 7056,
      "kʌvɜʌj": 7057,
      "wɪskɑnsʌn": 7058,
      "tɑd": 7059,
      "Jʌbʌl": 7060,
      "ɜvz": 7061,
      "etʌkʌt": 7062,
      "mEsʌn": 7063,
      "stæm": 7064,
      "ʌfer": 7065,
      "swɑn": 7066,
      "jɜmʌnz": 7067,
      "ʌfs": 7068,
      "ɑnɜeri": 7069,
      "dEnɪʃ": 7070,
      "nɜv": 7071,
      "ælgɜɪ": 7072,
      "lɪtɜʌli": 7073,
      "ʌmerʌkʌz": 7074,
      "edz": 7075,
      "rAli": 7076,
      "jEmi": 7077,
      "rekt": 7078,
      "næcɜ": 7079,
      "ʌktli": 7080,
      "kʌmponʌnt": 7081,
      "ɪligʌl": 7082,
      "prɔsesʌz": 7083,
      "æni": 7084,
      "vOst": 7085,
      "wʌndɜɪŋ": 7086,
      "ʃEm": 7087,
      "ɪntʌgrEtʌd": 7088,
      "entɪd": 7089,
      "foldʌd": 7090,
      "ʌtEt": 7091,
      "fɪŋ": 7092,
      "tAwɑn": 7093,
      "kɑmpri": 7094,
      "dɪtEld": 7095,
      "jʌnetɪk": 7096,
      "pEnt": 7097,
      "dæni": 7098,
      "wont": 7099,
      "endo": 7100,
      "spikɜz": 7101,
      "ɔrʌjɪnz": 7102,
      "ciz": 7103,
      "ʌbʌs": 7104,
      "ætʌtud": 7105,
      "dAʌgno": 7106,
      "ʌpset": 7107,
      "pɑs": 7108,
      "holz": 7109,
      "ɔriʌs": 7110,
      "wæg": 7111,
      "ɑzʌ": 7112,
      "bʌdi": 7113,
      "vAbr": 7114,
      "rAdɜ": 7115,
      "gæp": 7116,
      "ɪsʌnt": 7117,
      "trʌdɪʃʌnz": 7118,
      "kʌmændʌd": 7119,
      "mɔrʌs": 7120,
      "ʃɪn": 7121,
      "pɔ": 7122,
      "ælfrʌd": 7123,
      "jEkʌb": 7124,
      "itʌn": 7125,
      "restɜEʃʌn": 7126,
      "hætʌn": 7127,
      "depθ": 7128,
      "Edɪŋ": 7129,
      "træp": 7130,
      "nobɑdi": 7131,
      "bɜgɜ": 7132,
      "stɪks": 7133,
      "kɪlɜ": 7134,
      "wAlst": 7135,
      "wɔrnɜ": 7136,
      "prEzd": 7137,
      "wɪm": 7138,
      "homʌ": 7139,
      "kricɜ": 7140,
      "luiziænʌ": 7141,
      "ʃerz": 7142,
      "rilok": 7143,
      "pɜfʌktli": 7144,
      "rulɪŋ": 7145,
      "ʌpgrEd": 7146,
      "cɪk": 7147,
      "frɪj": 7148,
      "ɪld": 7149,
      "hɪstɔriʌnz": 7150,
      "sist": 7151,
      "æʃt": 7152,
      "ʌnbɜg": 7153,
      "fɑrmɜz": 7154,
      "ʌstrʌk": 7155,
      "sEnts": 7156,
      "ʌdʌlts": 7157,
      "Aʌs": 7158,
      "Juv": 7159,
      "bɔrg": 7160,
      "ʌgEtɪd": 7161,
      "berz": 7162,
      "profAl": 7163,
      "ɔrliʌnz": 7164,
      "umd": 7165,
      "nɑkt": 7166,
      "rEm": 7167,
      "ɑrks": 7168,
      "skejʊl": 7169,
      "kɑmpʌl": 7170,
      "telʌfon": 7171,
      "ɪnstʌnt": 7172,
      "mitɪŋz": 7173,
      "rig": 7174,
      "kʌnektɪŋ": 7175,
      "ɜEnjmʌnt": 7176,
      "fJunɜʌl": 7177,
      "denmɑrk": 7178,
      "pʌp": 7179,
      "dɪlɪbɜ": 7180,
      "ger": 7181,
      "ɪpɜ": 7182,
      "ɪnkrisɪz": 7183,
      "tʊrɪŋ": 7184,
      "bin": 7185,
      "pɜu": 7186,
      "prɪt": 7187,
      "ɪdɪʃʌnz": 7188,
      "sʌbstæncʌl": 7189,
      "Jusɪz": 7190,
      "mold": 7191,
      "oklʌ": 7192,
      "ɪntɜstEt": 7193,
      "mægʌzinz": 7194,
      "elswer": 7195,
      "spɜEʃʌn": 7196,
      "erɪzonʌ": 7197,
      "dʌzʌn": 7198,
      "hezɪt": 7199,
      "ɔgɜ": 7200,
      "prʌzɜv": 7201,
      "mʌcʊr": 7202,
      "ovɜwel": 7203,
      "klAmd": 7204,
      "fAtɜz": 7205,
      "pʌtrol": 7206,
      "lekcɜ": 7207,
      "wEvd": 7208,
      "ɪnɔr": 7209,
      "jʌŋ": 7210,
      "ʒɑnrʌ": 7211,
      "kɔrʌl": 7212,
      "dipɜ": 7213,
      "ætlæntʌ": 7214,
      "ruθ": 7215,
      "ɑlv": 7216,
      "ɑrktɪk": 7217,
      "θɪr": 7218,
      "pisi": 7219,
      "ɪndiʌnz": 7220,
      "kæpɪtʌl": 7221,
      "swɪmɪŋ": 7222,
      "sɪlk": 7223,
      "grov": 7224,
      "sɜcɪŋ": 7225,
      "jesi": 7226,
      "hɪndu": 7227,
      "jʌmʌn": 7228,
      "hɑrdli": 7229,
      "paɜd": 7230,
      "vɪzʌtɪŋ": 7231,
      "mɑnJumʌnt": 7232,
      "fled": 7233,
      "lɑj": 7234,
      "pætɜnz": 7235,
      "emplOmʌnt": 7236,
      "lɑjɪk": 7237,
      "pɑrtɪsʌpEt": 7238,
      "jɑnz": 7239,
      "ejʌkEtʌd": 7240,
      "ots": 7241,
      "slEvz": 7242,
      "dɜektɜz": 7243,
      "ʌslip": 7244,
      "fɔrʌsts": 7245,
      "ɑpɜEʃʌnʌl": 7246,
      "mʌnʌntli": 7247,
      "kʌntr": 7248,
      "buts": 7249,
      "lɔsʌz": 7250,
      "nin": 7251,
      "terʌbʌl": 7252,
      "dɪstʌnt": 7253,
      "cekt": 7254,
      "kɜv": 7255,
      "kʌmpliʃʌn": 7256,
      "ɪntɜfɪr": 7257,
      "but": 7258,
      "cɑrts": 7259,
      "plezʌnt": 7260,
      "pɜmɪʃʌn": 7261,
      "ferli": 7262,
      "grʌn": 7263,
      "pɜt": 7264,
      "ɪnjɜiz": 7265,
      "rɑjɜz": 7266,
      "mɪts": 7267,
      "æθletɪk": 7268,
      "fru": 7269,
      "pit": 7270,
      "θɪriz": 7271,
      "dɜti": 7272,
      "grEʌm": 7273,
      "kerʌktɜAzd": 7274,
      "ʌlʌn": 7275,
      "rEzɪŋ": 7276,
      "sʌt": 7277,
      "cʌnd": 7278,
      "cerɪti": 7279,
      "usʌl": 7280,
      "rɪlʌkt": 7281,
      "skænd": 7282,
      "bædli": 7283,
      "siætʌl": 7284,
      "lAsʌn": 7285,
      "ɑksʌjʌn": 7286,
      "nʌv": 7287,
      "æljʌb": 7288,
      "cueri": 7289,
      "sʌfɪʃʌnt": 7290,
      "prʌzɜvd": 7291,
      "kɑd": 7292,
      "Jer": 7293,
      "skrimd": 7294,
      "skæn": 7295,
      "votɪŋ": 7296,
      "fæbrɪk": 7297,
      "dɑmʌnʌnt": 7298,
      "skwɑd": 7299,
      "mɪstɜi": 7300,
      "bAɑgrʌfi": 7301,
      "kʌmpr": 7302,
      "medʌtɜ": 7303,
      "ɪnvɑlvz": 7304,
      "kʌlekʃʌnz": 7305,
      "bɑbi": 7306,
      "gEbri": 7307,
      "votɜz": 7308,
      "wɔriɜz": 7309,
      "ɪnkwA": 7310,
      "dɪsend": 7311,
      "pɑrtnɜz": 7312,
      "gerʌn": 7313,
      "ɪnfrʌstrʌk": 7314,
      "gests": 7315,
      "Adentɪkʌl": 7316,
      "ænJuʌli": 7317,
      "kɔrʌspɑndɪŋ": 7318,
      "stEɪŋ": 7319,
      "ɑwʌ": 7320,
      "entEʃʌn": 7321,
      "æŋgl": 7322,
      "Edo": 7323,
      "Jugo": 7324,
      "ɑpɜEtɜ": 7325,
      "ʌbtEn": 7326,
      "kærʌl": 7327,
      "kies": 7328,
      "ænsɜz": 7329,
      "welθi": 7330,
      "ɪmoʃʌnz": 7331,
      "dɪskʌst": 7332,
      "ɪzrEli": 7333,
      "enct": 7334,
      "wAdɜ": 7335,
      "lʌj": 7336,
      "pe": 7337,
      "plEsɪŋ": 7338,
      "rɪmot": 7339,
      "æbsʌlu": 7340,
      "ɪnɪŋ": 7341,
      "sandtræk": 7342,
      "pækt": 7343,
      "beli": 7344,
      "kɑrgo": 7345,
      "ʌstrɑn": 7346,
      "ʌpʃʌn": 7347,
      "edʌnbɜo": 7348,
      "pʌni": 7349,
      "trAz": 7350,
      "rɪbelJʌn": 7351,
      "fʌndʌmentʌl": 7352,
      "bɑz": 7353,
      "bandɜiz": 7354,
      "bækɪŋ": 7355,
      "jefɜ": 7356,
      "dɪpɑrcɜ": 7357,
      "ɔrʌgʌn": 7358,
      "kɑntest": 7359,
      "mɑrkʌs": 7360,
      "Evʌ": 7361,
      "medʌtɜEniʌn": 7362,
      "ændrʌ": 7363,
      "hɔlwE": 7364,
      "rʌkʌvɜd": 7365,
      "ɪntɜfEs": 7366,
      "ʌgræm": 7367,
      "oklʌhomʌ": 7368,
      "krɑ": 7369,
      "ovɜsiz": 7370,
      "benʌfɪts": 7371,
      "Adil": 7372,
      "kʌnekt": 7373,
      "bien": 7374,
      "ricʌz": 7375,
      "prer": 7376,
      "sEkrʌd": 7377,
      "linɪŋ": 7378,
      "hædʌnt": 7379,
      "dɑmʌnEtʌd": 7380,
      "sʌvɪlJʌn": 7381,
      "ætmʌsfɪr": 7382,
      "vencɜ": 7383,
      "ɪnsɪstʌd": 7384,
      "kerʌktɜɪstɪks": 7385,
      "kɑlʌn": 7386,
      "pent": 7387,
      "igʌl": 7388,
      "bɪlɔŋd": 7389,
      "bist": 7390,
      "vesʌl": 7391,
      "kʌntʌki": 7392,
      "perʌd": 7393,
      "hɜʌkEn": 7394,
      "ʌlejd": 7395,
      "ɜdE": 7396,
      "æbsʌlutli": 7397,
      "risɜcɜz": 7398,
      "ʌwʌ": 7399,
      "tEbʌlz": 7400,
      "ɪntencʌn": 7401,
      "rɪlisɪz": 7402,
      "tEt": 7403,
      "ɪŋli": 7404,
      "sʌlu": 7405,
      "bles": 7406,
      "mAnɔrʌti": 7407,
      "tæm": 7408,
      "ɪviʌ": 7409,
      "gɑrdiʌn": 7410,
      "stʌtɪstɪkʌl": 7411,
      "dilɪŋ": 7412,
      "kwɪz": 7413,
      "ɪmpi": 7414,
      "sʌspektʌd": 7415,
      "mekʌnɪzʌm": 7416,
      "pʌzeʃʌn": 7417,
      "ɪniʌn": 7418,
      "ɪlektrɪsʌti": 7419,
      "jɜusʌl": 7420,
      "lOʌl": 7421,
      "sker": 7422,
      "prʌsijɜ": 7423,
      "lAtɪŋ": 7424,
      "dɪsplEd": 7425,
      "kʌmpænJʌn": 7426,
      "kʌmpit": 7427,
      "sɪmfʌni": 7428,
      "grEdz": 7429,
      "tæŋks": 7430,
      "ɪnvɑlvmʌnt": 7431,
      "pʌzes": 7432,
      "son": 7433,
      "suzʌn": 7434,
      "bɔld": 7435,
      "rʌʃt": 7436,
      "pæm": 7437,
      "nɑmʌnEʃʌn": 7438,
      "spEsʌz": 7439,
      "fɪtʌd": 7440,
      "ʌkEʒʌnz": 7441,
      "kʌnetʌkʌt": 7442,
      "ɑpʃʌnz": 7443,
      "wɜði": 7444,
      "jenɜEtʌd": 7445,
      "dɪzAnɜ": 7446,
      "ɔstriʌn": 7447,
      "hæmp": 7448,
      "prezʌntEd": 7449,
      "prʌvɪʒʌn": 7450,
      "swɑlod": 7451,
      "meʒɜd": 7452,
      "bɑd": 7453,
      "dAmʌnd": 7454,
      "bɜnz": 7455,
      "ɪlektro": 7456,
      "vɪv": 7457,
      "wʌs": 7458,
      "ɪzʌn": 7459,
      "ɪncʌz": 7460,
      "pɜd": 7461,
      "().": 7462,
      "ɪnfɔrmd": 7463,
      "rɔ": 7464,
      "rezɪdʌnt": 7465,
      "segment": 7466,
      "pʌθ": 7467,
      "ɜAv": 7468,
      "dɪvAn": 7469,
      "kɪkt": 7470,
      "ælt": 7471,
      "berɪŋ": 7472,
      "dɜt": 7473,
      "brAd": 7474,
      "ɔstʌn": 7475,
      "fɪrts": 7476,
      "sEk": 7477,
      "nelsʌn": 7478,
      "inʌs": 7479,
      "kʌlæbɜEʃʌn": 7480,
      "sepʃʌnz": 7481,
      "ensɜ": 7482,
      "pɜpʌl": 7483,
      "rimAndʌd": 7484,
      "jʌt": 7485,
      "trent": 7486,
      "trɪbJut": 7487,
      "pɔrcʌgʌl": 7488,
      "nɪm": 7489,
      "ædvencɜz": 7490,
      "Jusʌj": 7491,
      "ʌbA": 7492,
      "deltʌ": 7493,
      "skat": 7494,
      "ɔrtʌn": 7495,
      "revʌnu": 7496,
      "klʌc": 7497,
      "mɜmɜd": 7498,
      "Jutɜ": 7499,
      "ʌbEs": 7500,
      "θroɪŋ": 7501,
      "klivlʌnd": 7502,
      "vektɜ": 7503,
      "æbsʌlut": 7504,
      "merʌn": 7505,
      "mʊ": 7506,
      "blEm": 7507,
      "tʊrɪzʌm": 7508,
      "ɑmi": 7509,
      "enjʌnɪrz": 7510,
      "rɪŋz": 7511,
      "æmbæsʌdɜ": 7512,
      "rɪvAzd": 7513,
      "lɔŋgʌst": 7514,
      "pʌblɪkli": 7515,
      "ʌltʌmʌt": 7516,
      "ɪkspoʒɜ": 7517,
      "jʊrʌs": 7518,
      "trɪm": 7519,
      "prol": 7520,
      "onE": 7521,
      "blEk": 7522,
      "jɜusʌlʌm": 7523,
      "ɪntɜʌptɪd": 7524,
      "strʌgʌld": 7525,
      "fleks": 7526,
      "vienʌ": 7527,
      "ɔrg": 7528,
      "wɪðdrɔ": 7529,
      "ɪnstʌntli": 7530,
      "femʌn": 7531,
      "mEtrɪks": 7532,
      "ædvɜtAzɪŋ": 7533,
      "ɑzʌt": 7534,
      "rAtɪŋz": 7535,
      "ʌtAp": 7536,
      "ɪntrʌdus": 7537,
      "pɑrkɜ": 7538,
      "dɪpend": 7539,
      "ɪksklud": 7540,
      "emɪli": 7541,
      "rʌbd": 7542,
      "Jeld": 7543,
      "kʌnekʃʌnz": 7544,
      "rʌʒim": 7545,
      "ʃes": 7546,
      "mAæmi": 7547,
      "flɜ": 7548,
      "brʊ": 7549,
      "bAʌlɑjɪkʌl": 7550,
      "etrɪk": 7551,
      "ɪnfrʌstrʌkcɜ": 7552,
      "derɪk": 7553,
      "dɪmɑkrʌsi": 7554,
      "bɪgɜ": 7555,
      "lɪbɜti": 7556,
      "vʌlnɜ": 7557,
      "sɑvrʌn": 7558,
      "rɪmEndɜ": 7559,
      "vɑr": 7560,
      "mʌŋk": 7561,
      "eksʌlʌnt": 7562,
      "kɔf": 7563,
      "diʌnz": 7564,
      "ɪfɜ": 7565,
      "kʌnsɪstʌnt": 7566,
      "mɪstE": 7567,
      "sutʌbʌl": 7568,
      "novʌ": 7569,
      "sɪgnʌlz": 7570,
      "ɪslɑm": 7571,
      "dʌmɪn": 7572,
      "benjʌmʌn": 7573,
      "jɪt": 7574,
      "hɑrʃ": 7575,
      "æstrʌn": 7576,
      "kɔrʌdɜ": 7577,
      "ɪnstrʌmentʌl": 7578,
      "gros": 7579,
      "wɔriɜ": 7580,
      "kɑmʌnz": 7581,
      "ɪnsek": 7582,
      "rEdɑr": 7583,
      "lʌsli": 7584,
      "mɑrkʌtɪŋ": 7585,
      "flEm": 7586,
      "pʊts": 7587,
      "ɔtʌmætɪk": 7588,
      "lɪvɜpul": 7589,
      "dAʌt": 7590,
      "rɪper": 7591,
      "elo": 7592,
      "cʌkʌl": 7593,
      "rɪfɜɪŋ": 7594,
      "prɪm": 7595,
      "mAkros": 7596,
      "ælʌbæmʌ": 7597,
      "plEts": 7598,
      "endɜz": 7599,
      "ɪzEʃʌnz": 7600,
      "bɜnɑrd": 7601,
      "cɔ": 7602,
      "mænhætʌn": 7603,
      "eksplʌnEʃʌn": 7604,
      "sokɔld": 7605,
      "gEbriʌl": 7606,
      "ɪsenʃʌli": 7607,
      "kɑlʌniz": 7608,
      "wAɜ": 7609,
      "sʌltʌn": 7610,
      "rædʌkʌl": 7611,
      "julJʌ": 7612,
      "eksplO": 7613,
      "kæmps": 7614,
      "bʌlg": 7615,
      "rɪmu": 7616,
      "ʌteriʌn": 7617,
      "ænɪti": 7618,
      "glu": 7619,
      "rEdiEʃʌn": 7620,
      "ræŋks": 7621,
      "drʌmætɪk": 7622,
      "drɪk": 7623,
      "sʌspendʌd": 7624,
      "bʌsɪz": 7625,
      "fɪlz": 7626,
      "bienkies": 7627,
      "wɔks": 7628,
      "ɔθɜAzd": 7629,
      "nɪt": 7630,
      "wʌndɜfʌl": 7631,
      "ɜɪjʌnEtʌd": 7632,
      "prʌdusʌz": 7633,
      "ɪjɪpʃʌn": 7634,
      "ɪntɜprɪtEʃʌn": 7635,
      "ʃɑts": 7636,
      "kricɜz": 7637,
      "wɪspɜ": 7638,
      "ʌmendmʌnt": 7639,
      "rɪvAvʌl": 7640,
      "beljʌm": 7641,
      "strok": 7642,
      "mɜcʌnt": 7643,
      "ærʌbɪk": 7644,
      "dosʌnt": 7645,
      "læŋk": 7646,
      "tO": 7647,
      "ɪnsA": 7648,
      "rɪfl": 7649,
      "sɑb": 7650,
      "bɔltʌm": 7651,
      "æpst": 7652,
      "ʌtemptɪŋ": 7653,
      "blɜ": 7654,
      "krAɪŋ": 7655,
      "Junʌti": 7656,
      "rɪðʌm": 7657,
      "kOnz": 7658,
      "pEɪŋ": 7659,
      "gænɪk": 7660,
      "kɑnfʌdʌns": 7661,
      "Edʌ": 7662,
      "ænɪk": 7663,
      "kʌlɜd": 7664,
      "eksʌkJuʃʌn": 7665,
      "leri": 7666,
      "mɜdɜd": 7667,
      "riu": 7668,
      "æbd": 7669,
      "efem": 7670,
      "krAmz": 7671,
      "krɪsci": 7672,
      "hʌlo": 7673,
      "rɪkʌv": 7674,
      "delʌg": 7675,
      "pɑnt": 7676,
      "pregnʌnt": 7677,
      "anz": 7678,
      "slɑ": 7679,
      "wenevɜ": 7680,
      "ted": 7681,
      "Alz": 7682,
      "trɪpʌl": 7683,
      "ɪksAtʌd": 7684,
      "sʌli": 7685,
      "bim": 7686,
      "ædʌk": 7687,
      "ʃe": 7688,
      "mitɜz": 7689,
      "bætʌlz": 7690,
      "polɜ": 7691,
      "ɪkwEʒʌn": 7692,
      "spAn": 7693,
      "ɪlnʌs": 7694,
      "swɪft": 7695,
      "ɪsɪŋ": 7696,
      "beŋ": 7697,
      "enst": 7698,
      "næt": 7699,
      "ʌpɑ": 7700,
      "ʌponʌnts": 7701,
      "sʌmʌt": 7702,
      "ɪmoʃʌnʌl": 7703,
      "stem": 7704,
      "mʌnɪp": 7705,
      "ɪksperʌmʌnts": 7706,
      "twentifɪrts": 7707,
      "ækJɜʌt": 7708,
      "dɪlɪvɜi": 7709,
      "sʌni": 7710,
      "klosʌst": 7711,
      "rutin": 7712,
      "Ejʌnsiz": 7713,
      "supɜv": 7714,
      "θɪŋks": 7715,
      "sofiʌ": 7716,
      "mɪʃel": 7717,
      "sʌlebr": 7718,
      "vælʌd": 7719,
      "hʌŋgɜi": 7720,
      "helm": 7721,
      "ɪnpʊt": 7722,
      "ɜj": 7723,
      "Omʌnt": 7724,
      "græsp": 7725,
      "kʌli": 7726,
      "krɪsciænɪti": 7727,
      "lɔri": 7728,
      "pɜsentʌj": 7729,
      "dɪzæstɜ": 7730,
      "wɪndz": 7731,
      "wilz": 7732,
      "prʌdusɜz": 7733,
      "rɪkɔld": 7734,
      "ɪbiʌn": 7735,
      "sʌsAʌtiz": 7736,
      "sɑm": 7737,
      "ɑrkiʌlɑjɪkʌl": 7738,
      "tiɜ": 7739,
      "ækwʌzɪʃʌn": 7740,
      "nibʌ": 7741,
      "ɪnɔgɜ": 7742,
      "lokʌli": 7743,
      "bɜmɪŋ": 7744,
      "hend": 7745,
      "rʌflektʌd": 7746,
      "kætʌlɔg": 7747,
      "sɜts": 7748,
      "oks": 7749,
      "ʃerɪŋ": 7750,
      "terʌ": 7751,
      "evʌnz": 7752,
      "sɪnʌmʌ": 7753,
      "tɑmpsʌn": 7754,
      "pOntɪŋ": 7755,
      "rɪlæk": 7756,
      "ændriʌ": 7757,
      "wɜʃʌp": 7758,
      "θimz": 7759,
      "tAz": 7760,
      "frendʃɪp": 7761,
      "ʌldz": 7762,
      "kemʌstri": 7763,
      "dɪspJut": 7764,
      "drʌmɜ": 7765,
      "æbʌl": 7766,
      "ɪvɑlvd": 7767,
      "ritrit": 7768,
      "pʌblɪʃɜ": 7769,
      "lif": 7770,
      "rɑbʌn": 7771,
      "budʌst": 7772,
      "snEk": 7773,
      "prAsʌz": 7774,
      "kæmbʌl": 7775,
      "brEv": 7776,
      "rʌv": 7777,
      "siʌn": 7778,
      "Enjʌlz": 7779,
      ".***": 7780,
      "finɪks": 7781,
      "pæc": 7782,
      "tʌk": 7783,
      "atr": 7784,
      "læftɜ": 7785,
      "motʌv": 7786,
      "fEk": 7787,
      "drʌŋk": 7788,
      "Akɑn": 7789,
      "rev": 7790,
      "ensʌz": 7791,
      "ʌmʌnz": 7792,
      "dɪpɪktʌd": 7793,
      "ɑlʌvɜ": 7794,
      "kO": 7795,
      "bɔltʌmɔr": 7796,
      "mʊhɑm": 7797,
      "mɑrz": 7798,
      "veriʌbʌl": 7799,
      "ɪgzɪbʌt": 7800,
      "treʒɜ": 7801,
      "rulɜ": 7802,
      "mJunɪsʌpælɪtiz": 7803,
      "ɑrtɪstɪk": 7804,
      "eliʌt": 7805,
      "ʃɪv": 7806,
      "dɪlʌn": 7807,
      "kʌmɪʃʌnɜ": 7808,
      "rʌdʌkʃʌn": 7809,
      "sʌbæs": 7810,
      "nuɜ": 7811,
      "lɔg": 7812,
      "jæks": 7813,
      "iʌsli": 7814,
      "vɜcuʌl": 7815,
      "tʊrʌst": 7816,
      "dɔrwE": 7817,
      "jEl": 7818,
      "dɑktɜz": 7819,
      "ɪmplʌmentʌd": 7820,
      "wæŋ": 7821,
      "ʌtʌs": 7822,
      "lenz": 7823,
      "prohɪbʌt": 7824,
      "prif": 7825,
      ").\"": 7826,
      "klem": 7827,
      "rɑbʌnsʌn": 7828,
      "dEtʌbEs": 7829,
      "rʌgɑrdlʌs": 7830,
      "fɪlɪŋ": 7831,
      "sɜz": 7832,
      "bɪhæf": 7833,
      "nɪkol": 7834,
      "kʌnsɜnɪŋ": 7835,
      "rɪwɔrd": 7836,
      "ne": 7837,
      "mɪcʌl": 7838,
      "evriwer": 7839,
      "kʌk": 7840,
      "hæns": 7841,
      "mʌnu": 7842,
      "æŋgʌ": 7843,
      "nd": 7844,
      "lɪθʌw": 7845,
      "mEnlænd": 7846,
      "wægʌn": 7847,
      "æŋgʌld": 7848,
      "ʌnɪksp": 7849,
      "mAld": 7850,
      "logo": 7851,
      "æθli": 7852,
      "blɪŋkt": 7853,
      "ɜvEʃʌnz": 7854,
      "fɜðɜmɔr": 7855,
      "pɔrtrʌt": 7856,
      "ɔrtɪd": 7857,
      "kwɑntʌm": 7858,
      "mæθʌmætɪkʌl": 7859,
      "bɪts": 7860,
      "drʌmz": 7861,
      "dɪkt": 7862,
      "dɑm": 7863,
      "kwE": 7864,
      "æmʌn": 7865,
      "veriEʃʌn": 7866,
      "dAz": 7867,
      "ðeræftɜ": 7868,
      "lEdiz": 7869,
      "ɪksplɪs": 7870,
      "æsko": 7871,
      "hAbr": 7872,
      "vɪktʌm": 7873,
      "prɑtʌstʌnt": 7874,
      "gɑsp": 7875,
      "æŋgJʌlɜ": 7876,
      "refɜʌnsɪz": 7877,
      "ɪmʌgrʌnts": 7878,
      "ɔrtʌdli": 7879,
      "rɪpɔrtʌdli": 7880,
      "ɪntɜcEnj": 7881,
      "mAnz": 7882,
      "sʌpɔrts": 7883,
      "skʌ": 7884,
      "destʌnEʃʌn": 7885,
      "hEvʌn": 7886,
      "mɜjɜ": 7887,
      "ɪnkred": 7888,
      "ʌfɜz": 7889,
      "sʌstEn": 7890,
      "rɑki": 7891,
      "ekcɜʌl": 7892,
      "bɜmɪŋhæm": 7893,
      "ceri": 7894,
      "polz": 7895,
      "ɪsʌ": 7896,
      "endʌ": 7897,
      "klɔθ": 7898,
      "restɜɑnts": 7899,
      "revʌl": 7900,
      "fɔn": 7901,
      "ɑndrE": 7902,
      "sʌbɜb": 7903,
      "ʌkan": 7904,
      "kɑmpʌns": 7905,
      "bætɜi": 7906,
      "bɪtɜ": 7907,
      "fan": 7908,
      "wɔrnd": 7909,
      "kʌsi": 7910,
      "ɪnsAkl": 7911,
      "mænJʌfækcɜd": 7912,
      "kɑnsʌl": 7913,
      "vʌt": 7914,
      "desprɪt": 7915,
      "ʌbɔrd": 7916,
      "sɑks": 7917,
      "hApɑ": 7918,
      "æpʌlɪs": 7919,
      "pez": 7920,
      "setʌlmʌnts": 7921,
      "presɪv": 7922,
      "miz": 7923,
      "jʌnd": 7924,
      "dɪsmɪst": 7925,
      "sʌbæscʌn": 7926,
      "tAtli": 7927,
      "ɪʃʌl": 7928,
      "wɪld": 7929,
      "stʌtɪstɪks": 7930,
      "skr": 7931,
      "kɑmpʌlEʃʌn": 7932,
      "cʌk": 7933,
      "tud": 7934,
      "pækʌj": 7935,
      "tʌcɪŋ": 7936,
      "gɪ": 7937,
      "trAʌlz": 7938,
      "ɪlʌstrEtʌd": 7939,
      "rɑkʌt": 7940,
      "kæs": 7941,
      "kwEk": 7942,
      "pɑrʃʌl": 7943,
      "vAn": 7944,
      "kɑlɪnz": 7945,
      "regJʌlEʃʌnz": 7946,
      "frE": 7947,
      "klʌt": 7948,
      "bʌnt": 7949,
      "kʌnfedɜʌt": 7950,
      "dɪkʃʌneri": 7951,
      "kɑmɜs": 7952,
      "ɪtEʃʌnz": 7953,
      "Odz": 7954,
      "kɑnsɜts": 7955,
      "hibru": 7956,
      "kEk": 7957,
      "ʃɔrtɜ": 7958,
      "hɪroz": 7959,
      "dɪstɪŋkʃʌn": 7960,
      "hʌŋgeriʌn": 7961,
      "tAgɜ": 7962,
      "ɪnʌsʌnt": 7963,
      "gælʌk": 7964,
      "loʌst": 7965,
      "drɑpɪŋ": 7966,
      "bɑrbɜʌ": 7967,
      "ænɜ": 7968,
      "æsets": 7969,
      "prefɜ": 7970,
      "hɑrdwer": 7971,
      "kʌnvɜʒʌn": 7972,
      "prɪntɪŋ": 7973,
      "lAsʌnst": 7974,
      "prɑpɜli": 7975,
      "næcɜʌli": 7976,
      "kʌnsɑl": 7977,
      "welkɔn": 7978,
      "læns": 7979,
      "lAtɜ": 7980,
      "ʃip": 7981,
      "welkɔnɜ": 7982,
      "bɪlʌti": 7983,
      "ɪndɪkEts": 7984,
      "ʌstrEʃʌn": 7985,
      "swept": 7986,
      "kwɪt": 7987,
      "kʌnstɪcuʌnsi": 7988,
      "ɔlɪŋ": 7989,
      "dAʌlekt": 7990,
      "kɪdnæ": 7991,
      "hʌdsʌn": 7992,
      "ʌtɔriʌl": 7993,
      "nʌg": 7994,
      "noʌ": 7995,
      "gɑdʌs": 7996,
      "vɜtɪkʌl": 7997,
      "ʌto": 7998,
      "fɪnlænd": 7999,
      "pɪtsbɜg": 8000,
      "dɪfʌkʌlti": 8001,
      "fʊltAm": 8002,
      "dAæmʌtɜ": 8003,
      "skel": 8004,
      "θred": 8005,
      "hɪd": 8006,
      "sɪmptʌmz": 8007,
      "eft": 8008,
      "rɪstɔr": 8009,
      "skri": 8010,
      "æksʌs": 8011,
      "ɜbz": 8012,
      "kʌnfɪgJɜ": 8013,
      "kɑntrʌbJuʃʌn": 8014,
      "sAʌntɪst": 8015,
      "etɪkʌl": 8016,
      "pɜEd": 8017,
      "fɑstɜ": 8018,
      "nutrʌl": 8019,
      "stɔrd": 8020,
      "ɪlɪŋ": 8021,
      "ʌlo": 8022,
      "gɔrj": 8023,
      "ɪnfʌn": 8024,
      "sæv": 8025,
      "brʌzɪlJʌn": 8026,
      "sAmʌltEniʌsli": 8027,
      "hensɪv": 8028,
      "ɑksAd": 8029,
      "rud": 8030,
      "oʃi": 8031,
      "dɪplOd": 8032,
      "tɑlɜ": 8033,
      "streŋ": 8034,
      "Jʌŋgʌst": 8035,
      "dɪstɪŋktɪv": 8036,
      "ʌponʌnt": 8037,
      "ʃʌvd": 8038,
      "ɑrtʌfɪʃʌl": 8039,
      "ʌvʌnt": 8040,
      "selʌbrEʃʌn": 8041,
      "rɪsepʃʌn": 8042,
      "grʌnt": 8043,
      "Ekʌ": 8044,
      "prAzʌz": 8045,
      "θɪrʌm": 8046,
      "herɪsʌn": 8047,
      "rop": 8048,
      "dO": 8049,
      "Jest": 8050,
      "ʌnɜ": 8051,
      "sni": 8052,
      "kʌlcɜz": 8053,
      "flʌʃ": 8054,
      "sensʌtɪv": 8055,
      "hɑrts": 8056,
      "ɪstʌl": 8057,
      "jʌjmʌnt": 8058,
      "rɪcmʌnd": 8059,
      "tɔst": 8060,
      "ʃAr": 8061,
      "swɪct": 8062,
      "hJuz": 8063,
      "bEl": 8064,
      "ʌnɪkspektɪd": 8065,
      "rɪplA": 8066,
      "perz": 8067,
      "fJuɜ": 8068,
      "fæv": 8069,
      "ʃɑkt": 8070,
      "sAtɪŋ": 8071,
      "gʌz": 8072,
      "ɔrgʌnʌst": 8073,
      "trek": 8074,
      "kʌnkluʒʌn": 8075,
      "vest": 8076,
      "volt": 8077,
      "vEgʌs": 8078,
      "rʌst": 8079,
      "ɑndʌ": 8080,
      "entɜz": 8081,
      "pɪks": 8082,
      "rɪkʌvri": 8083,
      "demʌkræts": 8084,
      "kʌmpitɪd": 8085,
      "bʊlʌt": 8086,
      "kɑmentʌd": 8087,
      "ɪrektʌd": 8088,
      "brɪjʌz": 8089,
      "kʌmperʌsʌn": 8090,
      "hApɑθ": 8091,
      "memwɑr": 8092,
      "solz": 8093,
      "okʌ": 8094,
      "Jʌlʌs": 8095,
      "ɪmprest": 8096,
      "mɪnʌstɜz": 8097,
      "æmpl": 8098,
      "ænɪm": 8099,
      "ɪcɜ": 8100,
      "ɪbɪt": 8101,
      "rElwEz": 8102,
      "rutɪd": 8103,
      "enʃi": 8104,
      "krʌm": 8105,
      "rozʌvel": 8106,
      "fluʌd": 8107,
      "!\"": 8108,
      "mɪdnAt": 8109,
      "tev": 8110,
      "pier": 8111,
      "wApt": 8112,
      "lEtʌst": 8113,
      "ribɪlt": 8114,
      "mɪkscɜ": 8115,
      "tʊrz": 8116,
      "stɑpɪŋ": 8117,
      "nʌgoʃiEʃʌnz": 8118,
      "fotʌgræfs": 8119,
      "bæŋkr": 8120,
      "sʌlekt": 8121,
      "kætʌgɔriz": 8122,
      "twu": 8123,
      "kEd": 8124,
      "dɪpɑrtmʌnts": 8125,
      "devʌl": 8126,
      "kʌntrolz": 8127,
      "dɪnA": 8128,
      "vɪnsʌnt": 8129,
      "mEnstrim": 8130,
      "mɪli": 8131,
      "rʌdusɪŋ": 8132,
      "sʌkseʃʌn": 8133,
      "bɪc": 8134,
      "kræʃt": 8135,
      "sækrʌfAs": 8136,
      "Johɑn": 8137,
      "ʌndɜn": 8138,
      "kɑrlos": 8139,
      "veriEʃʌnz": 8140,
      "ʌmants": 8141,
      "fævar": 8142,
      "slæmd": 8143,
      "gæðɜɪŋ": 8144,
      "ɜnʌs": 8145,
      "kæptɪv": 8146,
      "trʌŋk": 8147,
      "lɑts": 8148,
      "rɔr": 8149,
      "ʌbJus": 8150,
      "randz": 8151,
      "bʌfʌl": 8152,
      "dɪfitɪŋ": 8153,
      "teknɑlʌjiz": 8154,
      "bridɪŋ": 8155,
      "kɑstu": 8156,
      "dɪmɑlɪʃt": 8157,
      "ʃEd": 8158,
      "ɪŋgʌl": 8159,
      "ejʌz": 8160,
      "krAt": 8161,
      "?\"": 8162,
      "esko": 8163,
      "lʌf": 8164,
      "kʌndʌktɜ": 8165,
      "legʌsi": 8166,
      "zɑm": 8167,
      "fɔrtrʌs": 8168,
      "wɪθdru": 8169,
      "-\"": 8170,
      "sɪkJʊrd": 8171,
      "ʌdiz": 8172,
      "ɪriʌs": 8173,
      "glob": 8174,
      "gɜi": 8175,
      "jok": 8176,
      "ʌmʌl": 8177,
      "ɪnventʌd": 8178,
      "mɑnʌsteri": 8179,
      "kerʌktɜɪstɪk": 8180,
      "mætɪk": 8181,
      "ɪmoʃʌn": 8182,
      "sɪkʌl": 8183,
      "gɜlfrend": 8184,
      "vEk": 8185,
      "ʌlɪn": 8186,
      "mʌnθli": 8187,
      "jescʌn": 8188,
      "tinEj": 8189,
      "fɪlʌs": 8190,
      "tɔri": 8191,
      "ɪnʌv": 8192,
      "sʌŋ": 8193,
      "lʌst": 8194,
      "skrimɪŋ": 8195,
      "mɔri": 8196,
      "ristrɪktʌd": 8197,
      "feld": 8198,
      "swʌŋ": 8199,
      "ɪvæk": 8200,
      "mænJuʌl": 8201,
      "dɪskrAbɪŋ": 8202,
      "seksi": 8203,
      "rælf": 8204,
      "pɑrtʌkʌlz": 8205,
      "kɜɪbiʌn": 8206,
      "rɑbɜts": 8207,
      "ʌfekt": 8208,
      "sfɪr": 8209,
      "trofi": 8210,
      "krɪscʌnz": 8211,
      "ɪksklusɪvli": 8212,
      "hɑk": 8213,
      "JʌlEtɪd": 8214,
      "lAnʌp": 8215,
      "kæstɜ": 8216,
      "brʊklʌn": 8217,
      "hAts": 8218,
      "dAʌlɔg": 8219,
      "ʌsum": 8220,
      "ʌnfɔrcʌnʌtli": 8221,
      "ɪnɪʃʌtɪv": 8222,
      "brʌs": 8223,
      "gerʌnti": 8224,
      "sidʌd": 8225,
      "fɑg": 8226,
      "ɑpɜtunʌtiz": 8227,
      "klɪntʌn": 8228,
      "hʌŋgri": 8229,
      "ɪstæblɪʃɪŋ": 8230,
      "ʌcivmʌnt": 8231,
      "sɜkʌlz": 8232,
      "fArɪŋ": 8233,
      "demʌnstrEtʌd": 8234,
      "esʌnt": 8235,
      "hJumɜ": 8236,
      "grEn": 8237,
      "ɑrkAvz": 8238,
      "sAkɑlʌji": 8239,
      "ɪnstrʌkʃʌnz": 8240,
      "AsʌlEtʌd": 8241,
      "mEkɜz": 8242,
      "ɪfɪʃʌnt": 8243,
      "pAʌnɪr": 8244,
      "edmʌnd": 8245,
      "smæ": 8246,
      "lAʌnz": 8247,
      "stʌ": 8248,
      "holdɜz": 8249,
      "donEtʌd": 8250,
      "grɪd": 8251,
      "tæŋ": 8252,
      "jɑr": 8253,
      "ʃʊrli": 8254,
      "lɔŋtɜm": 8255,
      "pɜmɪtʌd": 8256,
      "flEmz": 8257,
      "kɑmpand": 8258,
      "dɜekʃʌnz": 8259,
      "sʌbsɪdieri": 8260,
      "bʊlʌv": 8261,
      "rinʌ": 8262,
      "dɪsʌplʌn": 8263,
      "jefɜsʌn": 8264,
      "Adʌ": 8265,
      "rɪvɜs": 8266,
      "dɪpɪk": 8267,
      "nobel": 8268,
      "ʌndɜniθ": 8269,
      "kʌnsumɜ": 8270,
      "ɑrjʌntinʌ": 8271,
      "kɑks": 8272,
      "wAldlAf": 8273,
      "kAndz": 8274,
      "sɜvAvʌl": 8275,
      "dred": 8276,
      "jɪl": 8277,
      "drom": 8278,
      "opʌnz": 8279,
      "deklɜEʃʌn": 8280,
      "lebʌn": 8281,
      "græfɪks": 8282,
      "wɔrfer": 8283,
      "bEsʌz": 8284,
      "sentɜd": 8285,
      "wɪnɜz": 8286,
      "nɜs": 8287,
      "ɔrgænɪk": 8288,
      "ænʌmEʃʌn": 8289,
      "kolɪn": 8290,
      "prʌnanst": 8291,
      "kwi": 8292,
      "sɑrjʌnt": 8293,
      "prʌpɔrʃʌn": 8294,
      "kʌlektɪv": 8295,
      "gɪlt": 8296,
      "elz": 8297,
      "ɜAvɪŋ": 8298,
      "boɪŋ": 8299,
      "ædʌkwʌt": 8300,
      "rɪpɔrtɜ": 8301,
      "sɪmbʌlz": 8302,
      "bʊlʌvɑrd": 8303,
      "tæksʌz": 8304,
      "padɜ": 8305,
      "repl": 8306,
      "hɪtɪŋ": 8307,
      "ɔtʌbA": 8308,
      "ɑrcbɪʃʌp": 8309,
      "mesʌjʌz": 8310,
      "endɔr": 8311,
      "dAʌsiz": 8312,
      "dɑktrʌn": 8313,
      "rɪmuvʌl": 8314,
      "pʌnɪʃmʌnt": 8315,
      "ʃæŋ": 8316,
      "piz": 8317,
      "fʌŋkʃʌnʌl": 8318,
      "kʌlæpst": 8319,
      "ɑrsʌn": 8320,
      "dɪskrɪmʌn": 8321,
      "fEnt": 8322,
      "swer": 8323,
      "Aʌwʌ": 8324,
      "bir": 8325,
      "fɪs": 8326,
      "dAv": 8327,
      "pAlʌts": 8328,
      "Etʌ": 8329,
      "ʌmon": 8330,
      "wɑndɜ": 8331,
      "træm": 8332,
      "ɑvi": 8333,
      "ʌsosiʌt": 8334,
      "Ekɜz": 8335,
      "venJu": 8336,
      "lʌmz": 8337,
      "ʃEpt": 8338,
      "stolʌn": 8339,
      "despɜ": 8340,
      "plizd": 8341,
      "holdɜ": 8342,
      "træpt": 8343,
      "fAɜz": 8344,
      "hɜi": 8345,
      "dɪvotʌd": 8346,
      "ʌfAz": 8347,
      "helps": 8348,
      "ʌstæn": 8349,
      "ɪntɜsekʃʌn": 8350,
      "lodʌd": 8351,
      "vælJʌbʌl": 8352,
      "lAtnɪŋ": 8353,
      "skwizd": 8354,
      "rɪkwestɪd": 8355,
      "dEbJud": 8356,
      "slept": 8357,
      "simɪŋ": 8358,
      "lijʌn": 8359,
      "mAkrosɔft": 8360,
      "mɔs": 8361,
      "kæθɜʌn": 8362,
      "memɜ": 8363,
      "stæk": 8364,
      "igɜ": 8365,
      "skE": 8366,
      "ælʌm": 8367,
      "ɪndʌktʌd": 8368,
      "kærɪj": 8369,
      "ʌbʌnd": 8370,
      "taɜz": 8371,
      "krɪm": 8372,
      "glæsʌz": 8373,
      "ɪksploʒʌn": 8374,
      "renʌs": 8375,
      "ɪntʌlekcuʌl": 8376,
      "trAʌm": 8377,
      "dɪlE": 8378,
      "pɜsivd": 8379,
      "brʌʃt": 8380,
      "ɑko": 8381,
      "kɑment": 8382,
      "ekspɜt": 8383,
      "sɜprAzɪŋ": 8384,
      "lɪsʌnd": 8385,
      "trʌmp": 8386,
      "metrʌs": 8387,
      "skwiz": 8388,
      "liɑn": 8389,
      "ɪnspɜEʃʌn": 8390,
      "slʌs": 8391,
      "kɜd": 8392,
      "θrid": 8393,
      "bræk": 8394,
      "ɪmpreʃʌn": 8395,
      "klAʌnt": 8396,
      "pɜsʌnʌli": 8397,
      "jAʌnts": 8398,
      "ʌjɜ": 8399,
      "sɜendɜ": 8400,
      "kɪsɪŋ": 8401,
      "sɪgɜ": 8402,
      "sɪtʌzʌn": 8403,
      "testʌd": 8404,
      "kʌlt": 8405,
      "sAzd": 8406,
      "gɜɑʒ": 8407,
      "sɑlv": 8408,
      "iʌnz": 8409,
      "drʌ": 8410,
      "jʌjɪz": 8411,
      "hɑlo": 8412,
      "klɪŋ": 8413,
      "hʌwAi": 8414,
      "homo": 8415,
      "ɑngoɪŋ": 8416,
      "jiʌn": 8417,
      "rivenj": 8418,
      "tɪkʌt": 8419,
      "minʌs": 8420,
      "ʌbri": 8421,
      "vɪr": 8422,
      "θA": 8423,
      "tɑrgʌts": 8424,
      "mʊhɑmʌd": 8425,
      "nɪknEm": 8426,
      "jʊrʌsdɪkʃʌn": 8427,
      "riko": 8428,
      "tʊrd": 8429,
      "pɔrtrE": 8430,
      "lesɜ": 8431,
      "bɪlz": 8432,
      "dɪsendʌnts": 8433,
      "kɔz": 8434,
      "ʌlæskʌ": 8435,
      "fɪlmɪŋ": 8436,
      "kɑrdʌnʌl": 8437,
      "spɑtʌd": 8438,
      "dɪsʌpOn": 8439,
      "elʌvEʃʌn": 8440,
      "renʌsɑns": 8441,
      "ræli": 8442,
      "flE": 8443,
      "nɪrʌst": 8444,
      "kɑmprʌm": 8445,
      "jɜn": 8446,
      "Aɜd": 8447,
      "bæm": 8448,
      "pɑrtɪsʌpEʃʌn": 8449,
      "kladz": 8450,
      "vɪʒ": 8451,
      "oɪŋ": 8452,
      "lOd": 8453,
      "ʌgli": 8454,
      "sper": 8455,
      "ɪnθuzi": 8456,
      "æti": 8457,
      "sikwʌn": 8458,
      "stivʌnz": 8459,
      "opʌl": 8460,
      "nɪp": 8461,
      "helθi": 8462,
      "dɪpendz": 8463,
      "dɪmændz": 8464,
      "kɑnsepts": 8465,
      "krɑk": 8466,
      "premɪrd": 8467,
      "ɪmplʌmentEʃʌn": 8468,
      "tempɜerʌli": 8469,
      "氵''``": 8470,
      "prɑmp": 8471,
      "cɑrm": 8472,
      "bɪznʌsmæn": 8473,
      "ridɜz": 8474,
      "fɜmli": 8475,
      "kos": 8476,
      "kɜʌnsi": 8477,
      "klɪk": 8478,
      "luiz": 8479,
      "ridɜ": 8480,
      "ʌko": 8481,
      "JestɜdE": 8482,
      "strec": 8483,
      "ɪgzɪbɪt": 8484,
      "Alʌndɜ": 8485,
      "lʌvɜ": 8486,
      "siE": 8487,
      "Azʌz": 8488,
      "ga": 8489,
      "wɜt": 8490,
      "gæspt": 8491,
      "erʌg": 8492,
      "protʌkɑl": 8493,
      "sɔs": 8494,
      "nɑmi": 8495,
      "rɪlivd": 8496,
      "dimʌnz": 8497,
      "ɑrdo": 8498,
      "tɪsJu": 8499,
      "ʃæft": 8500,
      "hɑrvʌst": 8501,
      "pɜsɪst": 8502,
      "mænʌfest": 8503,
      "emfʌsʌs": 8504,
      "æbʌt": 8505,
      "cɪr": 8506,
      "ɑrkʌns": 8507,
      "nærʌtɪv": 8508,
      "julz": 8509,
      "tɔrpi": 8510,
      "ɪndʌkEtɪŋ": 8511,
      "juʌl": 8512,
      "elʌvEtɜ": 8513,
      "sO": 8514,
      "endʌl": 8515,
      "piʌn": 8516,
      "ɪkstend": 8517,
      "dɪstɪŋgwɪʃ": 8518,
      "kɑnsʌntrEtʌd": 8519,
      "prɪdɑmʌn": 8520,
      "ɪntent": 8521,
      "fɔrk": 8522,
      "æθʌnz": 8523,
      "jerʌld": 8524,
      "kʌnspɪr": 8525,
      "ɪnsʌn": 8526,
      "æro": 8527,
      "bʌfʌlo": 8528,
      "ʌlɑrm": 8529,
      "æspekt": 8530,
      "mædʌsʌn": 8531,
      "plenti": 8532,
      "ælfʌb": 8533,
      "kes": 8534,
      "bær": 8535,
      "penʌlti": 8536,
      "bitʌlz": 8537,
      "kʌmpetʌtɪv": 8538,
      "ɑbl": 8539,
      "Avi": 8540,
      "sekʃ": 8541,
      "jefri": 8542,
      ",.": 8543,
      "ɪntɜvenc": 8544,
      "bægz": 8545,
      "bAk": 8546,
      "frozʌn": 8547,
      "ʃn": 8548,
      "kænʌd": 8549,
      "lɔrʌ": 8550,
      "ɪlɜ": 8551,
      "græmɜ": 8552,
      "zʌl": 8553,
      "spensɜ": 8554,
      "ædvʌk": 8555,
      "hɜst": 8556,
      "ɪnstrʌkʃʌn": 8557,
      "fɑrmɪŋ": 8558,
      "ɑrkʌtekcɜʌl": 8559,
      "wɑlʌti": 8560,
      "tɪmbɜ": 8561,
      "ler": 8562,
      "ɜnɪŋ": 8563,
      "ɑlf": 8564,
      "kwɑlʌfAd": 8565,
      "dɪvɔrs": 8566,
      "dimd": 8567,
      "kɑnsʌkw": 8568,
      "Eto": 8569,
      "prɪzʌnɜ": 8570,
      "ɪndʌl": 8571,
      "ʃʌd": 8572,
      "fɪli": 8573,
      "nO": 8574,
      "slAdɪŋ": 8575,
      "ɪnsAklʌpi": 8576,
      "pɑrtɪsʌpʌnts": 8577,
      "Jɑm": 8578,
      "tɑmi": 8579,
      "kʌmpæt": 8580,
      "telʌs": 8581,
      "ɪnɔrmʌs": 8582,
      "cænsʌlɜ": 8583,
      "jɑʃ": 8584,
      "nʌpo": 8585,
      "ʌnsʌksesfʌl": 8586,
      "hɪtlɜ": 8587,
      "ɪnfluʌnsɪz": 8588,
      "rɪvil": 8589,
      "rilokEtɪd": 8590,
      "θɜmʌl": 8591,
      "prɪnts": 8592,
      "sɪcuEʃʌnz": 8593,
      "edwɜdz": 8594,
      "tEʃʌn": 8595,
      "kɑnsʌkwen": 8596,
      "kɜs": 8597,
      "græfɪk": 8598,
      "ʃEkspi": 8599,
      "jenJʌ": 8600,
      "ɪlit": 8601,
      "fe": 8602,
      "ikwʌli": 8603,
      "sikwʌl": 8604,
      "sʌmɜz": 8605,
      "nɔrθwestɜn": 8606,
      "JukrEn": 8607,
      "dɪlɪvɜ": 8608,
      "lɑbi": 8609,
      "dwɔr": 8610,
      "ʌkEʒʌnʌl": 8611,
      "sɪndɪk": 8612,
      "eldʌst": 8613,
      "jʌs": 8614,
      "bʊr": 8615,
      "nɪg": 8616,
      "strænd": 8617,
      "Azʌk": 8618,
      "relm": 8619,
      "glʌv": 8620,
      "ʌlʌm": 8621,
      "kʌnvɪktʌd": 8622,
      "sentʌnst": 8623,
      "kodz": 8624,
      "sʌluʃʌnz": 8625,
      "ɪntensʌti": 8626,
      "æfgænʌstæn": 8627,
      "nesʌserʌli": 8628,
      "duo": 8629,
      "skrAbd": 8630,
      "ɔltɜnʌt": 8631,
      "nAtɪd": 8632,
      "mez": 8633,
      "ʌtendɪŋ": 8634,
      "ɪvli": 8635,
      "ʃæn": 8636,
      "sEvɪŋ": 8637,
      "Jujin": 8638,
      "ɪh": 8639,
      "spektrʌm": 8640,
      "kʌngr": 8641,
      "drEn": 8642,
      "plætfɔrmz": 8643,
      "jæg": 8644,
      "wɑt": 8645,
      "vænku": 8646,
      "sɜvɜ": 8647,
      "hæmpʃɜ": 8648,
      "klɪnʌkʌl": 8649,
      "ʌgresɪv": 8650,
      "nerod": 8651,
      "ɪlɪmʌnEtʌd": 8652,
      "jeni": 8653,
      "sop": 8654,
      "kɜn": 8655,
      "nEmɪŋ": 8656,
      "kJʊriʌs": 8657,
      "sAnɪŋ": 8658,
      "ɑrkʌnsɑ": 8659,
      "cen": 8660,
      "tɪr": 8661,
      "rolʌnd": 8662,
      "præktʌkli": 8663,
      "ɪfɪʃʌnsi": 8664,
      "enfɔrsmʌnt": 8665,
      "ʌmEʃʌn": 8666,
      "kɑmʌnteri": 8667,
      "dɪpendʌnt": 8668,
      "eriʌl": 8669,
      "meriʌn": 8670,
      "mɜsi": 8671,
      "klozɜ": 8672,
      "vɪktɔriʌn": 8673,
      "rEnjɪŋ": 8674,
      "mænJʌfækcɜɜz": 8675,
      "spesʌfAd": 8676,
      "dens": 8677,
      "drægd": 8678,
      "krɔsɪz": 8679,
      "tsu": 8680,
      "rEnjʌz": 8681,
      "fol": 8682,
      "skɑts": 8683,
      "kæk": 8684,
      "wok": 8685,
      "jescɜ": 8686,
      "fʌkɪŋ": 8687,
      "Eʌ": 8688,
      "kʌnsʌmpʃʌn": 8689,
      "grændmʌðɜ": 8690,
      "bɪlivz": 8691,
      "ðɪŋ": 8692,
      "cɪkʌn": 8693,
      "kɑmprihensɪv": 8694,
      "helɪkɑptɜ": 8695,
      "lJu": 8696,
      "fɜnɪcɜ": 8697,
      "fɪzɪkʌli": 8698,
      "terɪtɔriʌl": 8699,
      "bræs": 8700,
      "kɑments": 8701,
      "kʌlekt": 8702,
      "lEs": 8703,
      "hʌt": 8704,
      "hɔlz": 8705,
      "mɜz": 8706,
      "sɜkJʌlɜ": 8707,
      "mEz": 8708,
      "sEld": 8709,
      "kʌmbAn": 8710,
      "dɪpt": 8711,
      "æksesʌbʌl": 8712,
      "ɪse": 8713,
      "Amz": 8714,
      "bust": 8715,
      "mɑli": 8716,
      "ɪnɪʃiEtʌd": 8717,
      "pɔrʃʌnz": 8718,
      "tɜnɜ": 8719,
      "ɪkwɑlʌti": 8720,
      "mJʊr": 8721,
      "kæsi": 8722,
      "trEdɪd": 8723,
      "wɪʃɪŋ": 8724,
      "tenJɜ": 8725,
      "jidi": 8726,
      "ɑrkAv": 8727,
      "nAtmer": 8728,
      "ligʌli": 8729,
      "sɪgnʌ": 8730,
      "kɑmpækt": 8731,
      "lJʌ": 8732,
      "rɪpitɪdli": 8733,
      "kredɪts": 8734,
      "lEz": 8735,
      "dɪzizʌz": 8736,
      "skætɜd": 8737,
      "bend": 8738,
      "nɔrd": 8739,
      "ɪndu": 8740,
      "ædvAzɜ": 8741,
      "krEtɜ": 8742,
      "tens": 8743,
      "pEmʌnt": 8744,
      "ʌlʌ": 8745,
      "werz": 8746,
      "brɔ": 8747,
      "læmp": 8748,
      "jʊri": 8749,
      "ɪmʌgrEʃʌn": 8750,
      "flAz": 8751,
      "ruz": 8752,
      "bʌv": 8753,
      "mJuzi": 8754,
      "koɑpɜEʃʌn": 8755,
      "enzi": 8756,
      "egr": 8757,
      "kipɜ": 8758,
      "ʌtækɪŋ": 8759,
      "ɪmpruvmʌnts": 8760,
      "ɔtʌmobi": 8761,
      "klʌnd": 8762,
      "lisʌ": 8763,
      "ɪvi": 8764,
      "oʌ": 8765,
      "trævʌlz": 8766,
      "spɑnsɜd": 8767,
      "jenJʌwʌn": 8768,
      "æŋgʌlz": 8769,
      "epɪk": 8770,
      "ʌtræktɪv": 8771,
      "ʌkust": 8772,
      "hEld": 8773,
      "ɪmæjʌnd": 8774,
      "mænJʌfækcɜɜ": 8775,
      "bɪʃʌps": 8776,
      "prepɜEʃʌn": 8777,
      "hændlɪŋ": 8778,
      "Eʃʌ": 8779,
      "kʌngreʃʌnʌl": 8780,
      "kʌmpitɪŋ": 8781,
      "bitʌn": 8782,
      "kiθ": 8783,
      "tɔrcɜ": 8784,
      "sikrʌts": 8785,
      "rozʌvelt": 8786,
      "bɪlifs": 8787,
      "pɑnd": 8788,
      "klAn": 8789,
      "devʌst": 8790,
      "fran": 8791,
      "ʌbrɔd": 8792,
      "ɪnherʌtɪd": 8793,
      "dɪsgʌst": 8794,
      "briz": 8795,
      "meksɪk": 8796,
      "mɑrbʌl": 8797,
      "wɔld": 8798,
      "hilz": 8799,
      "fɜgɪv": 8800,
      "ʌpɑlo": 8801,
      "wɪdo": 8802,
      "hazd": 8803,
      "slEvɜi": 8804,
      "lAks": 8805,
      "pʌblɪʃɜz": 8806,
      "kɑnʃʌsnʌs": 8807,
      "nower": 8808,
      "kʌnsum": 8809,
      "trʌstɪd": 8810,
      "lʌb": 8811,
      "ɪkʌnz": 8812,
      "mɪnstɜ": 8813,
      "ʌtrækʃʌn": 8814,
      "skrE": 8815,
      "kɑnstʌntli": 8816,
      "ʌkʌmpʌni": 8817,
      "fEdʌd": 8818,
      "Avʌn": 8819,
      "dɪpɑrtʌd": 8820,
      "hek": 8821,
      "mænʃʌn": 8822,
      "fets": 8823,
      "sɪgnʌcɜ": 8824,
      "wɪdθ": 8825,
      "kɪli": 8826,
      "joz": 8827,
      "ɪdli": 8828,
      "kæmpEnz": 8829,
      "ɪntɜvJuz": 8830,
      "spekJʌl": 8831,
      "rɪspektɪv": 8832,
      "ret": 8833,
      "dɪsɔrdɜ": 8834,
      "hAdro": 8835,
      "bætmæn": 8836,
      "fæsʌn": 8837,
      "ʌprocʌz": 8838,
      "ʃepɜ": 8839,
      "ʌpd": 8840,
      "krɪsti": 8841,
      "grit": 8842,
      "kips": 8843,
      "ʒɜz": 8844,
      "ʌdEʃʌn": 8845,
      "nʌmbɜd": 8846,
      "æktʌvʌst": 8847,
      "pʊlz": 8848,
      "kJ": 8849,
      "sɜtɪfɪk": 8850,
      "cɔklʌt": 8851,
      "tɔks": 8852,
      "ʌgræfɪk": 8853,
      "tɜbo": 8854,
      "dezʌgnEʃʌn": 8855,
      "wɑʃt": 8856,
      "wɜkɜ": 8857,
      "jɜkt": 8858,
      "gren": 8859,
      "pɔrtlʌnd": 8860,
      "rɪlækst": 8861,
      "Adʌl": 8862,
      "ɑrgJuz": 8863,
      "lɔŋtAm": 8864,
      "elʌvEtɪd": 8865,
      "præktʌst": 8866,
      "bæstɜd": 8867,
      "ripɔrtɪŋ": 8868,
      "ɪdɜ": 8869,
      "ɪndɔr": 8870,
      "ʌkJum": 8871,
      "enhæns": 8872,
      "ʌtɜn": 8873,
      "sʌgnɪfɪkʌns": 8874,
      "vænkuvɜ": 8875,
      "rEnjɜz": 8876,
      "ʌdrest": 8877,
      "tEnz": 8878,
      "bOfrend": 8879,
      "tenz": 8880,
      "dɪzɑlvd": 8881,
      "iko": 8882,
      "ʃʌsli": 8883,
      "kɑmplʌkEtʌd": 8884,
      "fʌnt": 8885,
      "ænθrʌp": 8886,
      "skiz": 8887,
      "kants": 8888,
      "mægnʌ": 8889,
      "sændi": 8890,
      "hɔks": 8891,
      "trɪnʌti": 8892,
      "ʌfens": 8893,
      "bɑmɪŋ": 8894,
      "kɜld": 8895,
      "fidɪŋ": 8896,
      "nɔ": 8897,
      "wɔrmθ": 8898,
      "trʌj": 8899,
      "fotoz": 8900,
      "strɪŋz": 8901,
      "mʌzlʌmz": 8902,
      "gregɜi": 8903,
      "rɪzumd": 8904,
      "sʌvɪl": 8905,
      "fʌlɑ": 8906,
      "kwɔrt": 8907,
      "Jʌteri": 8908,
      "bʌtlɜ": 8909,
      "ɪksplEnz": 8910,
      "ænʌlɔg": 8911,
      "rɪcuʌl": 8912,
      "dAnɪŋ": 8913,
      "ɪkspektɪŋ": 8914,
      "prɑbʌbɪlʌti": 8915,
      "æbstr": 8916,
      "jenɜEʃʌnz": 8917,
      "nævʌgEʃʌn": 8918,
      "ʌwernʌs": 8919,
      "ɪntɜmidi": 8920,
      "luis": 8921,
      "kʌnekts": 8922,
      "ɪnfekʃʌn": 8923,
      "lAtli": 8924,
      "meriz": 8925,
      "hænsʌm": 8926,
      "kɑŋkwest": 8927,
      "nEbɜz": 8928,
      "dɪplʌmætɪk": 8929,
      "lokʌmotɪvz": 8930,
      "kæmɜʌz": 8931,
      "frEmwɜk": 8932,
      "grændsʌn": 8933,
      "pɪkɪŋ": 8934,
      "θen": 8935,
      "kɔrʌs": 8936,
      "kʌntest": 8937,
      "lʌvz": 8938,
      "protʌtAp": 8939,
      "jʌstʌn": 8940,
      "brɪstʌl": 8941,
      "kʌni": 8942,
      "lAbreriz": 8943,
      "ʌtɑmɪk": 8944,
      "stæg": 8945,
      "tempʌlz": 8946,
      "hEst": 8947,
      "fɑloɜz": 8948,
      "oto": 8949,
      "lɪbɜEʃʌn": 8950,
      "lɪftɪŋ": 8951,
      "bɪzʌntAn": 8952,
      "noʃʌn": 8953,
      "bɜkli": 8954,
      "pAp": 8955,
      "strAkɪŋ": 8956,
      "wɔlʌs": 8957,
      "æki": 8958,
      "skɑlɜʃɪp": 8959,
      "entʌli": 8960,
      "sepɜEʃʌn": 8961,
      "nʌts": 8962,
      "sensɜ": 8963,
      "frA": 8964,
      "hAdrʌjʌn": 8965,
      "ref": 8966,
      "prezʌdʌnsi": 8967,
      "rent": 8968,
      "mæj": 8969,
      "vʌlnɜʌbʌl": 8970,
      "ɪmɔrt": 8971,
      "kændi": 8972,
      "romæns": 8973,
      "ɑdɪk": 8974,
      "strʌkcɜʌl": 8975,
      "ʃeltɜ": 8976,
      "θiʌtɜz": 8977,
      "gʌd": 8978,
      "θiɑlʌji": 8979,
      "egzAl": 8980,
      "emʌgr": 8981,
      "ʌbrivi": 8982,
      "merʌtAm": 8983,
      "fɪrd": 8984,
      "smAlz": 8985,
      "sʌplAd": 8986,
      "Etoz": 8987,
      "ʌsesɜ": 8988,
      "bolt": 8989,
      "rʌflekt": 8990,
      "lʌgʒɜi": 8991,
      "fʌndʌd": 8992,
      "gridi": 8993,
      "ekw": 8994,
      "ʌsɪŋ": 8995,
      "hæc": 8996,
      "ɔtʌmætɪkli": 8997,
      "mO": 8998,
      "hɜid": 8999,
      "ʌwEk": 9000,
      "ɔrgʌnɪzEʃʌnz": 9001,
      "ɪmpruvmʌnt": 9002,
      "danz": 9003,
      "kJubʌ": 9004,
      "dɪfʌkʌltiz": 9005,
      "Emʌn": 9006,
      "pʌmp": 9007,
      "lʌjɪt": 9008,
      "smɪθs": 9009,
      "kæps": 9010,
      "tAtʌnd": 9011,
      "ʃɔrts": 9012,
      "tuθ": 9013,
      "sʌspenʃʌn": 9014,
      "fʊtbʌl": 9015,
      "ɪkstensɪvli": 9016,
      "ælgɜɪðʌm": 9017,
      "bwɑ": 9018,
      "hɜbɜt": 9019,
      "romEniʌ": 9020,
      "stEtmʌnts": 9021,
      "sɪndrom": 9022,
      "frEt": 9023,
      "drægʌnz": 9024,
      "restɪŋ": 9025,
      "pok": 9026,
      "wEl": 9027,
      "ʃʌtʌl": 9028,
      "elɪs": 9029,
      "spɪt": 9030,
      "lɪŋtʌn": 9031,
      "sizd": 9032,
      "rikwAɜɪŋ": 9033,
      "ʌpdEtʌd": 9034,
      "peŋ": 9035,
      "vl": 9036,
      "dom": 9037,
      "postɪd": 9038,
      "gærɪs": 9039,
      "JunJʌnz": 9040,
      "rEʃʌnz": 9041,
      "bɑksʌz": 9042,
      "ʌgEt": 9043,
      "ædvAz": 9044,
      "klAmɪŋ": 9045,
      "prɑg": 9046,
      "trɪbJʌteri": 9047,
      "drAd": 9048,
      "dɜbi": 9049,
      "pɔrd": 9050,
      "ɔskɜ": 9051,
      "ɪpiʌnt": 9052,
      "pEtrʌn": 9053,
      "protinz": 9054,
      "groz": 9055,
      "mɜkJɜi": 9056,
      "||||||": 9057,
      "flæʃt": 9058,
      "kæmɜʌn": 9059,
      "Abraz": 9060,
      "preʃʌnz": 9061,
      "dʌŋkʌn": 9062,
      "rɪtEn": 9063,
      "hAbrʌd": 9064,
      "rænc": 9065,
      "suz": 9066,
      "tɪf": 9067,
      "obʌ": 9068,
      "nɔrfʌk": 9069,
      "atdɔr": 9070,
      "brid": 9071,
      "vɑlʌntɪrz": 9072,
      "nEmli": 9073,
      "ʌsembʌld": 9074,
      "cerz": 9075,
      "ælJʌnz": 9076,
      "disʌl": 9077,
      "ʌmɔr": 9078,
      "dɪlEd": 9079,
      "dɪfr": 9080,
      "rob": 9081,
      "nEθʌn": 9082,
      "sʌkJuʃʌn": 9083,
      "ɔltɜd": 9084,
      "ɪksAtmʌnt": 9085,
      "ɪgzæ": 9086,
      "ʃits": 9087,
      "cɑrl": 9088,
      "kæriz": 9089,
      "risɔrs": 9090,
      "ɑbzɜvEʃʌn": 9091,
      "ridz": 9092,
      "mɑsk": 9093,
      "skændʌl": 9094,
      "siensi": 9095,
      "vArʌs": 9096,
      "Junɪk": 9097,
      "kwinzlænd": 9098,
      "ʌbɑlɪʃt": 9099,
      "bum": 9100,
      "ʃerʌf": 9101,
      "bæptʌst": 9102,
      "JEl": 9103,
      "ðerbA": 9104,
      "ɪnkantɜd": 9105,
      "mJucʌwʌl": 9106,
      "dræf": 9107,
      "ovʌ": 9108,
      "kɑlʌmz": 9109,
      "sɪf": 9110,
      "siʌm": 9111,
      "fokʌsɪŋ": 9112,
      "jʌk": 9113,
      "ʌnEʃʌnz": 9114,
      "hɜmʌn": 9115,
      "mas": 9116,
      "hezɪtEtɪd": 9117,
      "fɪ": 9118,
      "ʃɪpɪŋ": 9119,
      "fElɪŋ": 9120,
      "æʃʌn": 9121,
      "brʊks": 9122,
      "vAʌlɪn": 9123,
      "pek": 9124,
      "twɪnz": 9125,
      "jem": 9126,
      "posts": 9127,
      "klenct": 9128,
      "kAl": 9129,
      "wa": 9130,
      "mEntEnɪŋ": 9131,
      "lEzɜ": 9132,
      "ʃælo": 9133,
      "speʃʌlʌst": 9134,
      "zem": 9135,
      "ɪtɜz": 9136,
      "brɪŋz": 9137,
      "ɪnsAklʌpidiʌ": 9138,
      "ɑrdz": 9139,
      "dekɜEtʌd": 9140,
      "Jɔrkʃɜ": 9141,
      "swel": 9142,
      "grʌs": 9143,
      "fɪlʌsɑf": 9144,
      "dɪzAɜd": 9145,
      "lækt": 9146,
      "ɪntʌgrEʃʌn": 9147,
      "ɑsʌm": 9148,
      "trænsfɜmEʃʌn": 9149,
      "fræk": 9150,
      "ɑpɜEtɜz": 9151,
      "gɑspʌl": 9152,
      "regJʌlEʃʌn": 9153,
      "dɜɪv": 9154,
      "mænʌjɪŋ": 9155,
      "kerʌn": 9156,
      "ivʌ": 9157,
      "ɑlʌjʌst": 9158,
      "sv": 9159,
      "kɑnsʌkwensʌz": 9160,
      "fɑrðɜ": 9161,
      "renʌv": 9162,
      "slɑv": 9163,
      "ɪntɜækʃʌn": 9164,
      "slɜ": 9165,
      "kɑgn": 9166,
      "dwel": 9167,
      "kɜʌpʃʌn": 9168,
      "Jɑr": 9169,
      "rʌbɜ": 9170,
      "prɑmpt": 9171,
      "æmɪks": 9172,
      "hæfwE": 9173,
      "krEg": 9174,
      "pɜmɪt": 9175,
      "mɑnJʌm": 9176,
      "gɪld": 9177,
      "predʌsesɜ": 9178,
      "lɑks": 9179,
      "ɑi": 9180,
      "lɪl": 9181,
      "sAkʌlɑjɪkʌl": 9182,
      "Jutɔ": 9183,
      "vɪlʌ": 9184,
      "kɔrnɜz": 9185,
      "stol": 9186,
      "rik": 9187,
      "vɜcuʌli": 9188,
      "mʌlek": 9189,
      "ʌtendʌns": 9190,
      "ʌndi": 9191,
      "fɪlʌsɑfɪkʌl": 9192,
      "pɜswE": 9193,
      "floɪŋ": 9194,
      "vɜn": 9195,
      "lEɜz": 9196,
      "ɪksplosɪv": 9197,
      "grald": 9198,
      "kʌnɪŋ": 9199,
      "plEɔfs": 9200,
      "prɪventɪd": 9201,
      "lʌŋz": 9202,
      "sɑd": 9203,
      "selʌbrEt": 9204,
      "stʌnd": 9205,
      "sɜtʌfAd": 9206,
      "veriʌnts": 9207,
      "dæʃ": 9208,
      "blEz": 9209,
      "speʃʌlAzd": 9210,
      "olɪviʌ": 9211,
      "spAt": 9212,
      "dʌkotʌ": 9213,
      "trænsfɔrmd": 9214,
      "kɑrvd": 9215,
      "pɑmɜ": 9216,
      "vɜb": 9217,
      "ræʃʌnʌl": 9218,
      "kræfts": 9219,
      "rɔθ": 9220,
      "rʌfJuz": 9221,
      "glæsko": 9222,
      "skɔrz": 9223,
      "drɑps": 9224,
      "Eʃ": 9225,
      "sʌkt": 9226,
      "mɜfi": 9227,
      "fɪd": 9228,
      "twentɪf": 9229,
      "dɑt": 9230,
      "sæmpʌlz": 9231,
      "frʌntɪr": 9232,
      "ristrɪkʃʌnz": 9233,
      "nɪnt": 9234,
      "mænJʌskrɪpt": 9235,
      "rezʌgnEʃʌn": 9236,
      "kʌndem": 9237,
      "ælz": 9238,
      "æmbɜ": 9239,
      "gɪlbɜt": 9240,
      "glɔri": 9241,
      "rʌsɪpiʌnt": 9242,
      "ʌsɪstʌd": 9243,
      "tʊrʌsts": 9244,
      "cEnz": 9245,
      "kɑnsʌkwʌntli": 9246,
      "%),": 9247,
      "jerʌmi": 9248,
      "Edriʌn": 9249,
      "vɑlʌntɪr": 9250,
      "relʌvʌnt": 9251,
      "veriz": 9252,
      "ʌnɪm": 9253,
      "bʌni": 9254,
      "hʌf": 9255,
      "mænɪk": 9256,
      "pɑst": 9257,
      "bɑrkt": 9258,
      "stætɪk": 9259,
      "beljʌn": 9260,
      "reks": 9261,
      "fʌlɑsʌfɜ": 9262,
      "strʌgʌlɪŋ": 9263,
      "pɜmʌnʌntli": 9264,
      "hJumænɪti": 9265,
      "esʌns": 9266,
      "protests": 9267,
      "nefJu": 9268,
      "embrEs": 9269,
      "vɪdioz": 9270,
      "briðd": 9271,
      "ɪkstendɪŋ": 9272,
      "cælʌjd": 9273,
      "fɜtʌl": 9274,
      "spɪrʌts": 9275,
      "skʌlpcɜ": 9276,
      "plEsmʌnt": 9277,
      "vʌlɑsʌti": 9278,
      "hops": 9279,
      "brʌhæm": 9280,
      "vɪzʌts": 9281,
      "ænts": 9282,
      "kɑŋgrʌgEʃʌn": 9283,
      "suts": 9284,
      "mæjʌst": 9285,
      "deri": 9286,
      "fʌnɑmʌnɑn": 9287,
      "ɪbm": 9288,
      "ska": 9289,
      "rɪkʌvɜ": 9290,
      "ænjel": 9291,
      "bʌlk": 9292,
      "lʌvli": 9293,
      "bækwɜd": 9294,
      "væ": 9295,
      "ɑntʌl": 9296,
      "trænsfɔrm": 9297,
      "rikʌnstrʌkʃʌn": 9298,
      "ʌprocɪŋ": 9299,
      "prɪsɪp": 9300,
      "ɪnkɑr": 9301,
      "bAɑlʌji": 9302,
      "rekʌmʌnd": 9303,
      "ʌvʌlz": 9304,
      "rʌsivz": 9305,
      "ʌmɑr": 9306,
      "mɑntgʌm": 9307,
      "ɪgzæmʌnEʃʌn": 9308,
      "prizent": 9309,
      "mʌlekJʌlɜ": 9310,
      "dɪsplEz": 9311,
      "ʌjʌbʌl": 9312,
      "ændɜz": 9313,
      "mʌleni": 9314,
      "ægʌnʌst": 9315,
      "wAdʌnd": 9316,
      "kerd": 9317,
      "kEɑs": 9318,
      "bæriɜ": 9319,
      "unz": 9320,
      "ulʌ": 9321,
      "dedli": 9322,
      "plu": 9323,
      "flɪn": 9324,
      "mʌkdɑnʌld": 9325,
      "ɑnsɑm": 9326,
      "demʌkræt": 9327,
      "æknɑlɪjd": 9328,
      "pɪrs": 9329,
      "strEnjɜ": 9330,
      "frʌstr": 9331,
      "kæsk": 9332,
      "spɔrtɪŋ": 9333,
      "JukrEniʌn": 9334,
      "bærʌl": 9335,
      "rɪlAʌbʌl": 9336,
      "θiæt": 9337,
      "brɑm": 9338,
      "gʌvɜnɪŋ": 9339,
      "ɪndoniʒʌ": 9340,
      "hɔrt": 9341,
      "ɪzʌbʌl": 9342,
      "-(": 9343,
      "enkʌmp": 9344,
      "ɪstʌ": 9345,
      "prists": 9346,
      "dɪsbænd": 9347,
      "tæbl": 9348,
      "fAbɜ": 9349,
      "kɑmpʌtɪʃʌnz": 9350,
      "mɔrg": 9351,
      "sAko": 9352,
      "ovɜhed": 9353,
      "kɑntents": 9354,
      "ɑbzɜvEʃʌnz": 9355,
      "sAlʌntli": 9356,
      "eniʌl": 9357,
      "sɪmpʌθ": 9358,
      "drEk": 9359,
      "vetɜʌnz": 9360,
      "prʌmotɪŋ": 9361,
      "hʌŋgɜ": 9362,
      "ræbʌt": 9363,
      "kɜektli": 9364,
      "vɪt": 9365,
      "kwescʌnd": 9366,
      "pʌzest": 9367,
      "pʌtɪʃʌn": 9368,
      "restʌd": 9369,
      "kʊkɪŋ": 9370,
      "slɔ": 9371,
      "grævʌti": 9372,
      "enθ": 9373,
      "sʌbmɪtʌd": 9374,
      "strɔ": 9375,
      "hɑspɪt": 9376,
      "ritrivd": 9377,
      "dɪskʌntɪnJud": 9378,
      "ɜoz": 9379,
      "Juʌs": 9380,
      "pʌnc": 9381,
      "dɪvɜ": 9382,
      "frɔst": 9383,
      "ɜEnjmʌnts": 9384,
      "fEvɜd": 9385,
      "klɪrɪŋ": 9386,
      "bonʌs": 9387,
      "ɑrnʌld": 9388,
      "pɑlʌtɪʃʌnz": 9389,
      "cʌkʌld": 9390,
      "ʌbzɔrbd": 9391,
      "nɪ": 9392,
      "lændmɑrk": 9393,
      "kʌnfrʌnt": 9394,
      "kʌnsʌl": 9395,
      "priperɪŋ": 9396,
      "hɑlʌnd": 9397,
      "ɪsɪst": 9398,
      "dɪvelʌpmʌnts": 9399,
      "esʌ": 9400,
      "rʌfɔrmz": 9401,
      "atbrEk": 9402,
      "ɪmprɪz": 9403,
      "seltɪk": 9404,
      "strAks": 9405,
      "nɜd": 9406,
      "hɑrvi": 9407,
      "Edɜ": 9408,
      "ʌsesmʌnt": 9409,
      "brɪlJʌnt": 9410,
      "kɑntrækts": 9411,
      "flotɪŋ": 9412,
      "kæstɪŋ": 9413,
      "spɑts": 9414,
      "grEtfʌl": 9415,
      "biʌs": 9416,
      "ʌnli": 9417,
      "næst": 9418,
      "ʌkɑmʌdEt": 9419,
      "ækʌl": 9420,
      "bæts": 9421,
      "sensEʃʌn": 9422,
      "pʌb": 9423,
      "rilisɪŋ": 9424,
      "ʌbzɜvʌtɔri": 9425,
      "ʌfɔrd": 9426,
      "blɪŋ": 9427,
      "bɑndz": 9428,
      "kantʌd": 9429,
      "lan": 9430,
      "stɔ": 9431,
      "tɜminʌs": 9432,
      "Esi": 9433,
      "mæjɪkʌl": 9434,
      "riun": 9435,
      "ʌdmɪnʌstɜd": 9436,
      "vent": 9437,
      "æbr": 9438,
      "fækts": 9439,
      "dɪmenʃʌn": 9440,
      "lʌnz": 9441,
      "tAlɜ": 9442,
      "elʌf": 9443,
      "ɪrʌp": 9444,
      "trio": 9445,
      "nit": 9446,
      "ʌʃʌn": 9447,
      "kɪŋd": 9448,
      "fivɜ": 9449,
      "bɔrdɪŋ": 9450,
      "ʌbɜ": 9451,
      "kæʒʌwʌltiz": 9452,
      "Eniʌs": 9453,
      "plʌn": 9454,
      "vJuɜz": 9455,
      "ræbA": 9456,
      "lɪd": 9457,
      "glɔ": 9458,
      "nɑks": 9459,
      "ʌtɜd": 9460,
      "ʌtʌbʌl": 9461,
      "jɔrjʌz": 9462,
      "lenʌn": 9463,
      "jerɪd": 9464,
      "sɪli": 9465,
      "Eli": 9466,
      "jenɜEt": 9467,
      "zɑr": 9468,
      "hɑrmɑnɪk": 9469,
      "krɑps": 9470,
      "fɑs": 9471,
      "lɪks": 9472,
      "zen": 9473,
      "dɪfendʌd": 9474,
      "krest": 9475,
      "mAʌ": 9476,
      "fævJu": 9477,
      "riɜ": 9478,
      "ket": 9479,
      "entʌti": 9480,
      "ɑptɪkʌl": 9481,
      "riækʃʌnz": 9482,
      "holm": 9483,
      "cEmbɜz": 9484,
      "ɜθkwEk": 9485,
      "swɑlo": 9486,
      "sʌvɪrli": 9487,
      "ɪmprɪzʌnd": 9488,
      "lem": 9489,
      "rezʌn": 9490,
      "fʊtɪj": 9491,
      "ekʌ": 9492,
      "rɪlæks": 9493,
      "kʌnsʌlt": 9494,
      "pʌtenʃʌli": 9495,
      "bevɜ": 9496,
      "plæntʌd": 9497,
      "bɪbl": 9498,
      "rimuvɪŋ": 9499,
      "ʒɪŋ": 9500,
      "rEst": 9501,
      "trʌp": 9502,
      "ɑtʌwɑ": 9503,
      "dɪvɔrst": 9504,
      "kEti": 9505,
      "refɜend": 9506,
      "mɪlJʌnz": 9507,
      "cO": 9508,
      "fiv": 9509,
      "kɑmJun": 9510,
      "pɪcɜ": 9511,
      "prʌdʌktɪv": 9512,
      "stɑrk": 9513,
      "æko": 9514,
      "lenɜd": 9515,
      "swɔr": 9516,
      "kænJʌn": 9517,
      "mʌθɑlʌji": 9518,
      "fɔrʌm": 9519,
      "poʌts": 9520,
      "kansʌlz": 9521,
      "Eɪk": 9522,
      "ɪntɜmidiɪt": 9523,
      "engEjmʌnt": 9524,
      "hɑrpɜ": 9525,
      "rEmʌnd": 9526,
      "Atʌm": 9527,
      "devʌn": 9528,
      "kɑrdʌn": 9529,
      "elbo": 9530,
      "lɪvd": 9531,
      "sElɪŋ": 9532,
      "),\"": 9533,
      "sizɜ": 9534,
      "saθwestɜn": 9535,
      "gɑθɪk": 9536,
      "bAndɪŋ": 9537,
      "zA": 9538,
      "esEz": 9539,
      "sʌbstʌns": 9540,
      "ʌnkʌmfɜtʌbʌl": 9541,
      "ʌkʌs": 9542,
      "etɪks": 9543,
      "kræp": 9544,
      "plEg": 9545,
      "romEniʌn": 9546,
      "melʌn": 9547,
      "elpi": 9548,
      "tæsks": 9549,
      "ʌbʌ": 9550,
      "klɔd": 9551,
      "Ebrʌhæm": 9552,
      "drɪŋks": 9553,
      "ɪndɪpendʌntli": 9554,
      "ɑrgJuɪŋ": 9555,
      "ʌmJuz": 9556,
      "trEst": 9557,
      "lonli": 9558,
      "gɔl": 9559,
      "mʌlEʒʌ": 9560,
      "kʌnfɪgJɜEʃʌn": 9561,
[...]
